<unk>	0
<s>	0
</s>	0
,	-2.99508
.	-3.45896
▁в	-4.01217
а	-4.15696
▁-	-4.23485
▁не	-4.30251
-	-4.32075
▁и	-4.32147
е	-4.35163
!	-4.40301
▁на	-4.40765
▁с	-4.45904
▁а	-4.64102
и	-4.66757
▁	-4.67819
▁что	-4.72399
▁у	-4.74834
?-	-4.82884
▁по	-4.87457
м	-4.90419
▁я	-4.91773
у	-4.95478
▁за	-5.2159
...	-5.32111
▁вы	-5.34285
ы	-5.34963
?	-5.40083
.-	-5.42917
я	-5.43895
▁как	-5.44424
▁это	-5.45438
т	-5.46071
▁ты	-5.4855
о	-5.54215
й	-5.58356
с	-5.62004
▁к	-5.63436
л	-5.65906
в	-5.65937
▁от	-5.67764
р	-5.68023
ов	-5.68898
ли	-5.70194
ом	-5.70233
к	-5.73271
н	-5.77056
ка	-5.78792
д	-5.78839
то	-5.85573
▁да	-5.8648
▁все	-5.90245
▁из	-5.90272
ки	-5.92539
ю	-5.934
х	-5.94505
ра	-5.95467
▁о	-5.99222
ку	-5.99646
▁при	-6.00671
ла	-6.0083
▁но	-6.02835
▁так	-6.0435
ет	-6.04922
▁меня	-6.05257
▁если	-6.05396
▁когда	-6.08581
▁про	-6.0859
▁то	-6.0955
ой	-6.11357
ть	-6.11434
▁он	-6.12484
з	-6.15569
▁мне	-6.17552
на	-6.19703
п	-6.20594
ж	-6.20697
▁под	-6.22318
▁до	-6.23926
но	-6.24784
ш	-6.25296
▁нет	-6.30946
ся	-6.30961
да	-6.31319
▁раз	-6.32632
го	-6.348
▁же	-6.35669
ь	-6.38158
б	-6.38499
г	-6.38753
▁ну	-6.4033
ст	-6.42571
▁бы	-6.44774
ить	-6.45447
▁только	-6.4571
ль	-6.46589
▁со	-6.47423
ло	-6.47862
ем	-6.48746
те	-6.51021
▁почему	-6.58437
ч	-6.58475
▁его	-6.59131
не	-6.6073
▁чтобы	-6.61073
▁вас	-6.63282
ле	-6.63415
▁мы	-6.64945
▁тебя	-6.65083
ит	-6.67675
▁уже	-6.67849
▁она	-6.68018
▁об	-6.68098
▁еще	-6.68279
ая	-6.69001
ать	-6.69362
ко	-6.7044
ный	-6.70764
▁для	-6.71972
ф	-6.73823
ти	-6.74331
ни	-6.74974
▁есть	-6.75601
ве	-6.75677
▁вот	-6.75895
▁во	-6.76054
ре	-6.76659
ке	-6.7733
ва	-6.78779
ми	-6.79631
▁кто	-6.81055
ри	-6.84605
ер	-6.85735
▁чем	-6.87646
ру	-6.87829
че	-6.8815
▁ли	-6.91448
па	-6.91672
▁говорит	-6.91736
во	-6.92051
чи	-6.92854
он	-6.93332
де	-6.93376
ля	-6.95076
ах	-6.95085
▁жена	-6.95285
ый	-6.95696
ей	-6.95729
ами	-6.96082
за	-6.96186
та	-6.96496
ешь	-6.97257
▁тебе	-6.97733
ной	-6.98071
▁они	-6.98163
ная	-6.98633
▁нас	-6.98822
ил	-7.01238
по	-7.01874
▁п	-7.0202
сти	-7.02324
га	-7.04188
ает	-7.06258
▁пере	-7.07195
▁после	-7.07239
▁будет	-7.07717
▁ее	-7.08701
ок	-7.09476
▁можно	-7.09644
ну	-7.09935
ные	-7.10846
▁может	-7.11539
▁лет	-7.11966
▁один	-7.12464
ого	-7.12777
жи	-7.13531
▁без	-7.14287
им	-7.1442
би	-7.14512
ди	-7.14537
▁там	-7.14694
ту	-7.14906
▁вам	-7.14995
ую	-7.15152
▁ко	-7.16085
ется	-7.1658
▁ни	-7.16785
ые	-7.17802
ше	-7.17924
ду	-7.18472
▁где	-7.187
▁просто	-7.19046
▁муж	-7.1918
?!	-7.19461
ши	-7.1949
ных	-7.19976
ня	-7.20604
▁два	-7.20763
ых	-7.22476
▁очень	-7.22808
▁или	-7.22813
ят	-7.22827
▁надо	-7.23244
ви	-7.23819
от	-7.24603
▁ре	-7.24673
ал	-7.25271
му	-7.26471
ам	-7.26498
ча	-7.27801
▁было	-7.28369
ин	-7.28575
▁ш	-7.28761
▁их	-7.28924
...-	-7.29831
▁сегодня	-7.30633
ен	-7.32014
об	-7.32278
щ	-7.3283
до	-7.33239
▁был	-7.34947
ша	-7.35436
ков	-7.35939
ро	-7.36151
ба	-7.36806
▁больше	-7.36822
ют	-7.36843
ения	-7.38428
▁теперь	-7.38524
▁время	-7.39083
лся	-7.3909
ник	-7.39214
ты	-7.40764
ться	-7.40957
ны	-7.41038
же	-7.41403
▁з	-7.41441
вать	-7.42217
▁потому	-7.42435
▁вчера	-7.42546
▁день	-7.43089
ста	-7.43293
▁человек	-7.43408
▁спрашивает	-7.43655
ия	-7.44672
▁та	-7.45158
▁г	-7.4544
ще	-7.45493
▁ему	-7.45796
лю	-7.46076
▁те	-7.4608
мен	-7.46185
▁пол	-7.46332
▁мужик	-7.47477
ры	-7.47583
▁девушка	-7.48011
ев	-7.48021
▁ка	-7.48183
бе	-7.48918
▁россии	-7.49016
▁ж	-7.49616
са	-7.50251
вал	-7.50774
▁даже	-7.51027
ают	-7.5151
ним	-7.51982
▁потом	-7.52144
▁бо	-7.52401
ым	-7.52798
▁женщина	-7.52878
ную	-7.53123
жа	-7.53342
ед	-7.5395
▁себе	-7.54001
▁мама	-7.54041
ного	-7.54392
или	-7.5449
▁лучше	-7.54821
▁ма	-7.54902
кой	-7.55049
ход	-7.55396
▁э	-7.55542
▁себя	-7.55854
ц	-7.56271
пи	-7.56725
ются	-7.56858
▁хорошо	-7.574
ги	-7.57456
ца	-7.57848
лась	-7.58205
▁доктор	-7.5859
▁ничего	-7.60588
ор	-7.61081
▁мо	-7.61255
их	-7.61454
▁пока	-7.62068
▁всегда	-7.62588
бо	-7.62762
лись	-7.63016
ние	-7.64082
▁какой	-7.6412
▁быть	-7.6454
▁мой	-7.64888
ение	-7.64918
▁сейчас	-7.65194
▁жизнь	-7.65297
ным	-7.65431
тер	-7.65728
ком	-7.66183
▁перед	-7.66354
лет	-7.66502
▁две	-7.67489
▁три	-7.67631
лу	-7.67789
▁люди	-7.68471
пу	-7.68714
▁чего	-7.69576
▁него	-7.69724
ий	-7.70334
▁сколько	-7.70786
ите	-7.7117
▁штирлиц	-7.71593
▁папа	-7.72176
▁жизни	-7.72388
▁д	-7.72732
из	-7.72853
ии	-7.72975
▁деньги	-7.73466
се	-7.73469
▁вер	-7.74357
▁тут	-7.74763
ишь	-7.7523
▁тоже	-7.76694
ар	-7.7741
▁того	-7.77903
▁значит	-7.78478
▁тогда	-7.7853
▁дома	-7.7855
лы	-7.7864
▁зачем	-7.79852
си	-7.80115
▁такой	-7.80118
▁мужчина	-7.80302
ном	-7.80857
ное	-7.81198
вы	-7.81204
▁стар	-7.81784
ие	-7.8202
ое	-7.82036
▁год	-7.83274
▁ум	-7.8332
0	-7.83497
▁кон	-7.83571
ров	-7.83742
нибудь	-7.84316
▁тем	-7.84411
э	-7.84702
прав	-7.84969
▁нужно	-7.85202
ан	-7.8537
▁пре	-7.86005
▁сам	-7.86507
▁рас	-7.86553
▁через	-7.86678
пе	-7.87447
▁много	-7.88197
ится	-7.88308
▁че	-7.88358
стр	-7.88449
тель	-7.89258
▁всех	-7.89343
али	-7.89547
▁никогда	-7.89734
▁них	-7.89819
ик	-7.89837
мы	-7.90096
▁ба	-7.90631
▁домой	-7.91058
ез	-7.91735
▁б	-7.91747
▁такое	-7.91772
▁ло	-7.92215
▁сосед	-7.9272
▁знаю	-7.92891
ол	-7.93095
ство	-7.93711
▁женщины	-7.93914
▁всего	-7.93959
сп	-7.94075
▁пи	-7.94179
▁па	-7.94404
чу	-7.94894
▁пар	-7.95337
▁который	-7.95449
це	-7.95457
ел	-7.963
цы	-7.96531
▁моя	-7.96586
чит	-7.96859
▁хочу	-7.97881
ции	-7.98642
▁конечно	-7.98945
▁ведь	-7.99168
нее	-7.9928
сто	-7.99735
▁могу	-7.9978
▁кар	-7.99847
ись	-8.00008
▁тот	-8.00263
шу	-8.00474
▁приходит	-8.01167
▁была	-8.01289
▁гор	-8.01486
▁ле	-8.01833
жд	-8.02036
ист	-8.02043
▁пред	-8.02071
иться	-8.02751
бы	-8.02794
▁сказал	-8.03005
нии	-8.03359
▁вопрос	-8.0378
сь	-8.04213
▁ей	-8.04908
су	-8.05008
▁им	-8.05147
▁пе	-8.05355
юсь	-8.05541
ний	-8.06226
лен	-8.06653
ья	-8.06778
сс	-8.0742
гу	-8.07597
сть	-8.07658
ат	-8.07837
▁ди	-8.08193
▁нам	-8.08227
▁которые	-8.08458
про	-8.08481
▁жен	-8.08683
▁свет	-8.08956
нь	-8.09049
▁мальчик	-8.0934
▁ф	-8.09604
▁буду	-8.09691
▁ме	-8.09739
ци	-8.10246
▁р	-8.10507
▁куда	-8.10677
▁бр	-8.10688
ский	-8.10886
нов	-8.11478
▁ку	-8.12671
▁1	-8.12752
▁де	-8.12785
▁стоит	-8.13019
▁ваш	-8.13062
ской	-8.13157
▁вообще	-8.13199
ция	-8.13461
▁кого	-8.13533
▁сын	-8.13583
нул	-8.13694
▁своей	-8.13865
▁новый	-8.14208
дал	-8.1466
▁начал	-8.14778
ила	-8.149
▁людей	-8.15058
▁крас	-8.15109
▁кот	-8.15212
ха	-8.15262
▁одна	-8.15628
▁сразу	-8.15837
нуть	-8.15962
▁каждый	-8.16235
▁говорят	-8.16314
вар	-8.16372
ска	-8.16383
▁вид	-8.16662
ды	-8.16706
▁хотел	-8.17951
тся	-8.17982
аться	-8.18125
▁ла	-8.18427
ек	-8.18501
▁делать	-8.18507
од	-8.18761
ете	-8.19144
ск	-8.19384
дет	-8.19401
сы	-8.19589
дер	-8.19601
нд	-8.19797
▁бел	-8.19953
дел	-8.20413
раз	-8.20477
вор	-8.20483
зи	-8.20699
▁работу	-8.21486
ец	-8.21601
вали	-8.21644
▁какая	-8.21743
очка	-8.21773
хо	-8.2181
▁том	-8.22296
▁люб	-8.22394
нт	-8.22642
▁человека	-8.22845
▁телефон	-8.22863
пер	-8.23004
ив	-8.23278
▁знаешь	-8.23462
▁кор	-8.23822
ума	-8.24019
▁свою	-8.24358
вид	-8.24386
ость	-8.24439
▁дорогой	-8.24603
бу	-8.2464
▁врач	-8.24675
▁этом	-8.25038
стро	-8.25239
род	-8.25307
▁плохо	-8.25449
▁бл	-8.26107
▁понял	-8.2639
▁пап	-8.2645
▁бу	-8.26464
бор	-8.26539
▁пор	-8.26856
▁стол	-8.27592
ния	-8.27619
бра	-8.28736
ность	-8.28816
ками	-8.28819
ель	-8.29075
лад	-8.29431
▁денег	-8.29532
тор	-8.29615
▁м	-8.29695
▁давай	-8.2971
ается	-8.29733
▁этот	-8.29844
чик	-8.29877
ут	-8.30183
▁всю	-8.30294
ней	-8.3051
▁наш	-8.30525
▁этого	-8.30974
▁оста	-8.31013
▁бес	-8.31394
жен	-8.31419
▁купил	-8.31431
▁х	-8.31569
жу	-8.31584
льно	-8.32023
ог	-8.32095
▁2	-8.32447
▁обо	-8.32601
уч	-8.32647
▁видел	-8.32732
▁сер	-8.32862
лось	-8.33061
▁дети	-8.33416
щи	-8.33482
▁тех	-8.34082
▁народ	-8.34115
▁долго	-8.34364
▁идет	-8.34482
ова	-8.34544
▁сто	-8.35275
▁были	-8.35523
лов	-8.35561
▁раньше	-8.36048
ился	-8.36103
▁такая	-8.36386
▁мужчины	-8.36484
▁сынок	-8.37538
▁получ	-8.37554
рь	-8.37626
ская	-8.37773
▁дорогая	-8.38068
оз	-8.38263
▁зад	-8.38375
▁дела	-8.38793
ости	-8.38837
рос	-8.3935
▁друг	-8.39376
▁никто	-8.39592
▁завтра	-8.39692
▁опять	-8.39707
ешься	-8.39755
цию	-8.39881
ню	-8.39943
▁хочешь	-8.40458
ходят	-8.40542
▁вовочка	-8.40804
▁года	-8.41024
▁над	-8.41147
▁какие	-8.41415
▁мам	-8.41882
▁город	-8.42201
▁спи	-8.42282
▁цел	-8.42387
▁ос	-8.42518
▁ней	-8.42564
цу	-8.42608
йте	-8.42613
▁будут	-8.42623
чь	-8.42639
▁мужчин	-8.42726
▁минут	-8.43397
ась	-8.43415
▁решил	-8.4366
▁между	-8.43699
шь	-8.4377
со	-8.43773
▁тре	-8.43778
ина	-8.43876
▁ю	-8.43972
▁путин	-8.44152
▁знаете	-8.44228
ского	-8.44321
ала	-8.44444
бл	-8.44628
▁мои	-8.44946
ывает	-8.45216
▁интернет	-8.45416
▁равно	-8.45533
▁пят	-8.45659
▁мол	-8.45751
зы	-8.45813
ские	-8.45871
▁чу	-8.46209
▁здесь	-8.46462
▁готов	-8.46716
ге	-8.46786
чку	-8.46788
▁утром	-8.46865
▁ту	-8.46981
▁прос	-8.47026
▁дед	-8.47043
▁вдруг	-8.4707
ика	-8.47358
▁месяц	-8.47531
▁закон	-8.47632
▁своего	-8.47742
ос	-8.47921
▁ду	-8.47965
▁работа	-8.48218
▁всем	-8.48286
▁мужа	-8.48566
ными	-8.48783
▁пожалуйста	-8.48952
▁мир	-8.49075
▁туалет	-8.49185
▁эти	-8.492
бр	-8.49323
▁фи	-8.49601
▁суд	-8.49632
▁женщин	-8.49896
стве	-8.50138
▁свой	-8.50306
▁дев	-8.50327
нос	-8.50362
▁хоть	-8.50473
▁поэтому	-8.50512
кор	-8.50696
▁одно	-8.51577
▁нельзя	-8.51982
ника	-8.52016
ности	-8.52041
▁взял	-8.52052
▁му	-8.52288
▁дом	-8.52369
▁воз	-8.52369
▁весь	-8.52558
▁ночь	-8.52604
▁подходит	-8.52736
▁другой	-8.52856
чка	-8.52966
▁против	-8.53033
▁люблю	-8.53301
▁цвет	-8.53349
▁девушки	-8.53355
▁бог	-8.5339
▁двух	-8.53599
▁сделал	-8.53749
аешь	-8.53776
▁жить	-8.53801
чки	-8.53965
▁пять	-8.5423
чно	-8.54336
▁совсем	-8.54354
ыми	-8.54413
▁первый	-8.54615
▁оп	-8.54742
▁поп	-8.54856
айте	-8.54939
▁должен	-8.55116
ания	-8.55211
▁пьян	-8.55508
▁скажите	-8.55614
▁магазин	-8.55767
▁такие	-8.55769
▁язык	-8.55846
▁нос	-8.5595
▁моей	-8.5596
пор	-8.55995
▁сказать	-8.56011
▁дело	-8.56279
▁вес	-8.56279
▁бар	-8.56448
▁жены	-8.56814
нный	-8.57134
ался	-8.5722
ивает	-8.57286
▁смотрит	-8.57348
▁гол	-8.5742
▁голос	-8.57532
▁прав	-8.5754
▁пить	-8.57543
▁глаза	-8.57615
▁никак	-8.57797
ию	-8.57814
ства	-8.57933
тов	-8.5795
итель	-8.57955
▁мат	-8.58182
ление	-8.58712
▁детей	-8.58749
лом	-8.58789
▁ро	-8.59068
дать	-8.5917
▁подумал	-8.59426
▁хо	-8.59696
▁жене	-8.59741
▁замуж	-8.60265
▁знает	-8.60324
▁будешь	-8.60373
чен	-8.60408
ках	-8.60453
▁ми	-8.60541
▁место	-8.60726
▁руки	-8.60761
▁мало	-8.60816
▁тра	-8.60999
▁газ	-8.61082
▁черн	-8.61138
овать	-8.61191
▁кур	-8.61436
▁свои	-8.61452
▁разве	-8.61644
▁сидит	-8.61693
▁эта	-8.61903
▁мор	-8.62083
▁выход	-8.62154
▁ра	-8.62249
▁мог	-8.62344
▁ста	-8.62557
при	-8.62821
▁дверь	-8.62852
▁ответ	-8.62937
▁правда	-8.63121
▁утра	-8.63594
▁сначала	-8.63614
ели	-8.63799
▁час	-8.63819
ось	-8.63871
▁вечер	-8.63987
▁президент	-8.64078
ман	-8.64088
▁сделать	-8.64172
▁бед	-8.64189
тен	-8.6468
▁молод	-8.64781
▁ска	-8.64813
▁пришел	-8.64857
ятся	-8.64878
гла	-8.65083
▁работы	-8.6515
▁интересно	-8.6524
▁банк	-8.65688
▁дня	-8.65774
ять	-8.65823
нять	-8.6595
▁скоро	-8.66245
ехал	-8.66296
три	-8.66534
тро	-8.66613
▁тобой	-8.66861
шки	-8.66901
лич	-8.66983
▁бор	-8.67119
ники	-8.67164
очку	-8.67316
нет	-8.67743
нут	-8.67821
▁спать	-8.68041
▁могут	-8.68219
ому	-8.68246
▁тысяч	-8.68474
овой	-8.68503
▁мар	-8.68601
ром	-8.68612
▁парень	-8.6863
▁ша	-8.68729
держа	-8.68766
▁кол	-8.6893
▁мужу	-8.69137
▁ним	-8.69276
▁жену	-8.69405
стра	-8.69629
▁хочется	-8.69634
▁женой	-8.69681
▁кажется	-8.69759
▁одного	-8.69828
▁самое	-8.69889
изм	-8.70004
▁стал	-8.70025
▁одной	-8.70216
▁ночью	-8.70224
ских	-8.70322
шка	-8.70607
▁шо	-8.70631
шел	-8.70978
▁боль	-8.7102
▁здоров	-8.71053
▁улице	-8.71105
▁пла	-8.71249
нем	-8.71671
ус	-8.71699
сов	-8.71931
▁гре	-8.72001
чат	-8.7221
ница	-8.7226
▁делает	-8.72269
▁наконец	-8.726
▁собира	-8.72623
атор	-8.72727
▁отец	-8.72747
▁пиво	-8.72831
ском	-8.72841
ень	-8.72857
ях	-8.7309
▁общ	-8.73354
▁любит	-8.73378
▁ч	-8.73425
▁точно	-8.73544
оро	-8.73623
кро	-8.73702
▁пове	-8.73804
▁класс	-8.73951
цен	-8.73973
▁ти	-8.74652
▁зам	-8.75168
▁фильм	-8.7537
▁совет	-8.75497
▁пут	-8.75524
▁хорош	-8.75653
▁выбор	-8.75817
▁10	-8.75836
ью	-8.75958
▁говорил	-8.75965
▁стать	-8.76058
▁второй	-8.76122
▁способ	-8.76149
▁похож	-8.76217
▁ой	-8.76237
▁возраст	-8.76468
лей	-8.7649
шку	-8.76522
▁рублей	-8.76635
щик	-8.76941
▁ха	-8.77189
она	-8.7721
вший	-8.77239
рас	-8.77293
▁зап	-8.77334
▁би	-8.77533
▁откуда	-8.77583
▁игр	-8.77741
▁дурак	-8.77779
▁дер	-8.77785
тра	-8.7786
▁баб	-8.77976
▁объявление	-8.78062
кс	-8.78126
▁нее	-8.78323
илась	-8.78357
▁роди	-8.78467
▁твой	-8.78484
▁ча	-8.7852
▁думал	-8.78554
ден	-8.78602
▁компьютер	-8.78856
▁голову	-8.78859
▁слово	-8.7901
▁любовь	-8.79027
▁авто	-8.79102
ирован	-8.79162
енно	-8.79355
кий	-8.79459
▁ваши	-8.79855
рен	-8.79856
▁план	-8.79953
▁своих	-8.80149
▁телевизор	-8.80319
▁постоянно	-8.80443
▁труд	-8.80448
▁сад	-8.80585
▁рыб	-8.80614
лек	-8.80682
▁видит	-8.80683
▁хочет	-8.8082
пла	-8.80885
ктор	-8.80889
рез	-8.80906
смотр	-8.80916
▁ох	-8.81055
▁иногда	-8.81307
▁мозг	-8.81327
щий	-8.81365
▁цен	-8.81402
▁самый	-8.81402
щу	-8.81416
▁собой	-8.8149
▁слова	-8.81949
▁бег	-8.82049
нер	-8.82103
ставить	-8.82369
▁ге	-8.82535
▁быстро	-8.82602
▁водки	-8.82655
▁давно	-8.82665
▁студент	-8.82807
▁занима	-8.83045
▁глав	-8.83161
▁расс	-8.83287
▁бер	-8.83324
▁дж	-8.83553
▁ок	-8.83553
▁комп	-8.83584
ству	-8.83594
▁пер	-8.83726
чный	-8.83798
цев	-8.83924
▁работе	-8.8399
ски	-8.84083
▁скажи	-8.84126
▁созда	-8.84634
▁которая	-8.84843
▁вечером	-8.84918
▁жив	-8.85042
▁мной	-8.85058
▁понимаю	-8.85434
▁5	-8.85504
ваю	-8.85598
хожу	-8.85669
очки	-8.85743
▁девочка	-8.85914
скую	-8.85929
▁заходит	-8.85964
ье	-8.85967
ировать	-8.86164
ывать	-8.86199
▁меньше	-8.86223
олог	-8.86354
▁слышал	-8.86585
▁куп	-8.86825
▁лу	-8.86991
▁вся	-8.87132
▁фа	-8.87459
▁глуп	-8.87654
▁тр	-8.87728
▁русский	-8.87824
▁фор	-8.88
▁вкус	-8.88133
енный	-8.88147
ъ	-8.88151
▁машину	-8.88284
ву	-8.88575
▁лишь	-8.8869
▁одну	-8.8887
▁ноги	-8.88943
чить	-8.88969
▁рядом	-8.88999
▁главное	-8.89089
стан	-8.89308
▁само	-8.8937
▁тер	-8.89401
▁смог	-8.89422
▁назад	-8.89607
кон	-8.89713
▁столько	-8.89761
▁наши	-8.89848
5	-8.89869
▁богат	-8.90101
▁слыш	-8.90149
▁работает	-8.90187
под	-8.90196
▁наверное	-8.90301
▁кому	-8.90368
▁сказала	-8.9064
щей	-8.90831
▁твоя	-8.90847
▁думает	-8.9085
▁зна	-8.90866
▁друга	-8.9088
нию	-8.91047
дин	-8.91149
▁стран	-8.91194
▁член	-8.91266
ницы	-8.91441
▁брос	-8.91448
ясь	-8.91512
▁чай	-8.9165
▁пес	-8.91755
▁своим	-8.91821
▁молодой	-8.91867
ваться	-8.91945
▁страш	-8.92221
йтесь	-8.92223
телей	-8.92263
▁руб	-8.92381
таки	-8.92401
йся	-8.92628
▁блин	-8.92676
▁прямо	-8.9309
▁кофе	-8.93259
▁след	-8.93275
клю	-8.93434
▁умер	-8.93439
чке	-8.935
▁сильно	-8.93546
▁знаком	-8.93551
пр	-8.93572
▁живот	-8.93818
рт	-8.94028
▁вз	-8.94051
▁мя	-8.94075
▁твои	-8.94193
▁туп	-8.94276
нка	-8.94478
▁купить	-8.94526
▁мечта	-8.94555
▁лицо	-8.94657
▁привет	-8.94775
▁начина	-8.94879
▁мил	-8.94937
▁мед	-8.95275
рел	-8.95508
▁говорить	-8.95586
▁таки	-8.95641
▁четыре	-8.95694
▁начальник	-8.95696
нс	-8.95742
водит	-8.95794
▁думаю	-8.95843
▁сред	-8.95901
ложи	-8.95926
▁знал	-8.95999
▁расп	-8.96046
ями	-8.96294
▁бабушка	-8.96299
▁работать	-8.96306
▁алло	-8.96317
▁разговор	-8.96461
▁туда	-8.9658
▁рук	-8.96669
▁пыта	-8.96774
▁гу	-8.96936
▁женщину	-8.97009
ному	-8.97097
▁кури	-8.97187
ились	-8.97216
▁вместе	-8.97247
▁сша	-8.97476
▁прост	-8.97491
▁году	-8.97498
бить	-8.97543
дя	-8.97621
▁увидел	-8.9763
ывают	-8.97817
▁ел	-8.9782
▁правильно	-8.98139
▁нравится	-8.98222
▁собака	-8.98241
тан	-8.98433
▁брат	-8.98471
▁ваша	-8.98583
▁слишком	-8.98601
дут	-8.98622
▁свое	-8.9879
▁обычно	-8.98805
▁бабу	-8.99152
▁недо	-8.99277
▁плат	-8.99423
▁спасибо	-8.99788
▁можешь	-8.99788
▁кра	-8.99821
▁несколько	-8.99987
рить	-9.00169
нным	-9.00176
▁лож	-9.0037
▁депутат	-9.00386
▁пуст	-9.0046
вой	-9.00558
▁постели	-9.00591
▁более	-9.00642
▁дура	-9.0068
▁россия	-9.0081
▁семь	-9.00856
▁уж	-9.00864
воз	-9.0089
▁мире	-9.01101
▁стали	-9.01183
ительно	-9.0134
▁смысл	-9.01393
1	-9.01474
▁часа	-9.01487
▁хотя	-9.0178
дель	-9.01916
▁сообщ	-9.02004
▁найти	-9.02046
▁попал	-9.02079
шей	-9.02211
меня	-9.02244
▁глаз	-9.02262
▁пал	-9.02402
льные	-9.02403
▁бывает	-9.02482
▁товарищ	-9.02613
▁слушай	-9.02818
тре	-9.0283
▁забыл	-9.02983
▁настолько	-9.03024
▁двое	-9.03029
▁принес	-9.03109
▁немного	-9.03687
пле	-9.03873
▁леч	-9.03891
нц	-9.03941
▁спрашивают	-9.03971
▁еврей	-9.04057
▁ресторан	-9.04057
зер	-9.04189
▁ужас	-9.044
▁легко	-9.04414
рет	-9.04548
ировал	-9.04682
▁узнал	-9.04686
▁именно	-9.04766
ивают	-9.04779
▁мать	-9.04815
▁рождения	-9.04891
▁евро	-9.04914
▁нашей	-9.04948
▁лежа	-9.05079
вол	-9.05083
▁россиян	-9.05287
▁кем	-9.0535
▁какое	-9.05374
▁звонит	-9.05389
теля	-9.05459
▁пациент	-9.05521
пал	-9.05527
рон	-9.0584
▁научи	-9.05855
▁момент	-9.05979
▁часто	-9.06008
▁звон	-9.06222
▁вместо	-9.06372
▁жал	-9.06574
▁хотите	-9.06581
сил	-9.06601
ишься	-9.06616
нных	-9.0678
▁школе	-9.06795
▁будем	-9.06883
▁ор	-9.06914
▁рож	-9.06919
▁га	-9.06929
реш	-9.07125
иль	-9.07352
▁мюллер	-9.07436
▁отвечает	-9.07436
▁кап	-9.07465
нные	-9.07493
▁пора	-9.07682
▁мужики	-9.07778
▁интерес	-9.07891
▁удар	-9.07926
ников	-9.07953
ант	-9.08132
▁кос	-9.08239
▁чиновник	-9.08299
рад	-9.08352
▁гос	-9.08453
▁пусть	-9.08486
▁голуб	-9.08528
▁самолет	-9.08586
▁стан	-9.08681
▁ру	-9.08746
▁яйца	-9.08747
▁сидят	-9.08774
нг	-9.0888
ушка	-9.08889
▁футбол	-9.09033
▁утро	-9.09135
▁зуб	-9.09177
▁др	-9.0933
лев	-9.09363
▁раст	-9.095
▁теле	-9.09551
▁этой	-9.09828
▁детстве	-9.09828
▁выходит	-9.09901
▁посмотри	-9.10094
▁100	-9.10182
вай	-9.10248
▁гости	-9.10528
▁рот	-9.10658
▁спросил	-9.10703
▁иди	-9.10808
▁самом	-9.10853
етесь	-9.10909
▁времени	-9.10934
▁мер	-9.1095
▁ног	-9.10958
вел	-9.10974
▁опыт	-9.11184
▁иван	-9.11355
▁пьяный	-9.11552
▁упал	-9.11591
00	-9.11777
▁хр	-9.11792
▁жил	-9.11858
▁дли	-9.11861
▁рус	-9.11943
дают	-9.11944
инг	-9.12062
▁мимо	-9.12284
▁круг	-9.1236
▁особенно	-9.12729
▁пил	-9.12916
тар	-9.12927
нием	-9.12984
▁зато	-9.13003
▁оно	-9.13006
▁сел	-9.13028
▁либо	-9.13183
▁холодильник	-9.13183
▁родители	-9.13198
▁пря	-9.13245
▁проблемы	-9.13282
▁сторон	-9.13448
▁стране	-9.13662
▁спас	-9.13692
▁получил	-9.13744
▁милый	-9.13761
▁стра	-9.13812
▁20	-9.14057
▁смотреть	-9.14098
▁свин	-9.1418
овал	-9.14212
▁случайно	-9.14213
▁эконом	-9.14466
▁идиот	-9.14657
▁эту	-9.14725
альный	-9.14734
▁думаешь	-9.14789
▁хрен	-9.14824
▁рад	-9.14837
пит	-9.14842
▁смотри	-9.1496
▁маленький	-9.15022
▁матери	-9.15171
▁магазине	-9.15229
ован	-9.15324
тик	-9.15381
▁мое	-9.15449
▁пошел	-9.15495
▁мороз	-9.15542
тый	-9.1556
пре	-9.15566
▁раза	-9.15579
муж	-9.15711
бит	-9.15979
▁урок	-9.16187
ским	-9.16417
▁неделю	-9.16438
вин	-9.16588
итесь	-9.1663
▁разговарива	-9.16673
ток	-9.16888
десят	-9.17093
▁сами	-9.17605
▁встреч	-9.17923
▁другому	-9.18023
▁хлеб	-9.18085
▁купи	-9.18144
▁звонок	-9.18176
вания	-9.18297
▁путина	-9.18319
▁переста	-9.1835
▁карман	-9.18388
▁давайте	-9.18457
▁презерватив	-9.18559
▁девушку	-9.18559
▁побед	-9.18656
▁водку	-9.1882
▁бух	-9.18844
▁вещи	-9.18931
тельно	-9.18939
▁лен	-9.18941
▁кредит	-9.1904
▁голове	-9.19049
▁сына	-9.19122
▁мою	-9.19214
▁метро	-9.19258
▁прошл	-9.19263
▁мужика	-9.19299
пил	-9.19321
▁запис	-9.19486
▁например	-9.19524
▁которой	-9.19524
ьте	-9.197
▁которого	-9.19767
▁кричит	-9.19768
▁гл	-9.19769
▁одном	-9.19822
▁сама	-9.19918
2	-9.20023
рма	-9.20201
енька	-9.20308
ирует	-9.20333
▁ребенка	-9.20498
▁корм	-9.20787
чески	-9.20827
▁страшно	-9.20866
мор	-9.21018
▁коп	-9.21025
▁крут	-9.21063
▁роз	-9.21323
▁самая	-9.21457
▁блондинка	-9.21482
▁пример	-9.2151
жать	-9.21664
▁нашел	-9.21698
бол	-9.21719
▁результат	-9.21978
▁кат	-9.21994
▁объ	-9.22264
▁кота	-9.22312
▁лес	-9.22368
ович	-9.22534
▁маш	-9.22638
▁начинает	-9.22693
▁месте	-9.22901
▁говорю	-9.22976
ницу	-9.23009
щих	-9.23027
оваться	-9.23042
▁трех	-9.23056
▁сил	-9.23114
▁нужен	-9.23156
▁нового	-9.23218
▁директор	-9.23228
▁фе	-9.23275
▁поле	-9.23507
▁американск	-9.23532
тели	-9.2356
ивается	-9.23586
ское	-9.23699
▁продав	-9.23752
▁50	-9.23796
▁голова	-9.23807
чал	-9.23854
▁миллион	-9.23896
щего	-9.23926
▁кус	-9.23934
▁обед	-9.23975
▁должна	-9.24239
▁недавно	-9.24239
▁считает	-9.24456
▁отдел	-9.2468
▁орган	-9.24747
крыл	-9.24939
▁уверен	-9.25008
▁отпуск	-9.25015
шке	-9.25043
есси	-9.25075
зу	-9.25097
▁другие	-9.25134
▁помог	-9.25424
нула	-9.25465
▁руку	-9.25487
▁номер	-9.25555
▁стрел	-9.25705
▁дочь	-9.25712
▁обязательно	-9.25776
▁надпись	-9.25776
▁вижу	-9.25906
жил	-9.25907
▁брак	-9.25926
▁паль	-9.26053
▁сос	-9.26066
ивая	-9.26141
▁счет	-9.26237
▁однажды	-9.26294
▁нормально	-9.26295
▁вин	-9.2633
▁мет	-9.26416
▁фотограф	-9.26418
▁экзамен	-9.26553
стью	-9.26593
▁открыт	-9.2663
бежал	-9.26673
▁возможно	-9.26677
▁слов	-9.26715
▁деле	-9.26809
▁этим	-9.26827
нок	-9.26883
няя	-9.27029
▁встречаются	-9.27124
игра	-9.27131
ску	-9.27157
▁дай	-9.27403
вый	-9.2745
▁причин	-9.27463
емся	-9.27468
уют	-9.27625
▁добр	-9.27669
▁трудно	-9.27693
▁встреча	-9.27729
▁часов	-9.27759
▁большой	-9.27862
▁дороги	-9.28126
очек	-9.28232
▁теща	-9.28399
▁курс	-9.28411
▁одни	-9.28484
▁которых	-9.28656
▁обратно	-9.28656
▁живет	-9.28686
▁еду	-9.28815
вис	-9.2892
▁основ	-9.29054
▁рыба	-9.29196
▁молча	-9.29301
▁друзья	-9.29335
программ	-9.29451
▁называется	-9.29455
▁десять	-9.2946
▁пара	-9.29476
▁извините	-9.29592
▁случае	-9.29995
▁дра	-9.30037
▁черт	-9.30173
▁моего	-9.30209
▁секрет	-9.3024
▁счастье	-9.30262
▁девушке	-9.30262
▁должно	-9.30265
▁толст	-9.30289
▁дел	-9.30289
▁диван	-9.30294
▁лев	-9.30334
▁долг	-9.30355
▁квартир	-9.30477
▁понимаешь	-9.30533
▁ходить	-9.30567
вание	-9.30594
▁китай	-9.30722
▁будто	-9.3073
ват	-9.30796
▁абрам	-9.30832
▁самые	-9.30899
▁руга	-9.31013
кая	-9.31021
▁доме	-9.31085
▁порт	-9.31133
▁сходи	-9.31147
▁поезд	-9.31209
▁ночи	-9.31276
▁ученые	-9.31357
▁15	-9.31392
▁лег	-9.31464
▁квартиру	-9.31779
▁чувство	-9.31822
▁перес	-9.31872
▁официант	-9.31894
▁пен	-9.32071
▁таким	-9.3215
▁девушкой	-9.32169
▁велик	-9.32311
▁вашей	-9.32536
▁ци	-9.32553
▁других	-9.32576
▁иванов	-9.3266
▁рабинович	-9.32721
▁рабоч	-9.32734
лег	-9.32823
▁мест	-9.32861
▁четвер	-9.32998
▁зол	-9.33046
▁существ	-9.33275
▁ребенок	-9.33276
▁баба	-9.33318
енные	-9.33605
казывает	-9.33619
▁скр	-9.33666
▁род	-9.33669
▁пис	-9.33681
▁ход	-9.33784
▁гад	-9.33918
▁праздник	-9.33921
▁образ	-9.33973
▁понять	-9.33996
▁приду	-9.34003
гуля	-9.34046
▁букв	-9.34167
бегает	-9.34174
▁снова	-9.34247
вшись	-9.34366
▁ладно	-9.34684
▁сигарет	-9.34959
шек	-9.35116
▁хватает	-9.35229
▁смотрю	-9.35263
▁маск	-9.35526
▁оказывается	-9.35527
▁мин	-9.35756
дов	-9.35802
ложить	-9.35807
▁кабинет	-9.36097
▁закончил	-9.36115
▁друж	-9.36125
▁любят	-9.36331
▁какую	-9.36416
▁красиво	-9.36456
чная	-9.36475
▁жар	-9.36602
▁пива	-9.36761
▁тому	-9.3681
▁должны	-9.36959
▁новости	-9.36964
▁семье	-9.37009
▁ради	-9.37123
▁комнат	-9.37131
▁пару	-9.37162
ющих	-9.37197
ваешь	-9.37535
▁лежит	-9.37574
▁стоя	-9.37575
▁добро	-9.37664
▁спор	-9.37677
▁гер	-9.37686
▁такси	-9.37766
▁книг	-9.37951
▁стало	-9.38097
▁учитель	-9.38111
▁трус	-9.38289
▁бал	-9.38292
нная	-9.38364
▁здравствуйте	-9.38412
▁случилось	-9.38412
▁почти	-9.38427
▁трав	-9.38444
▁полов	-9.38525
▁дур	-9.38527
▁граждан	-9.38599
▁долларов	-9.38697
▁российско	-9.38699
▁чист	-9.38755
▁места	-9.3883
▁ры	-9.38945
▁новую	-9.39012
друг	-9.39108
чок	-9.39295
▁политик	-9.39312
▁прием	-9.39363
▁воды	-9.39461
▁взять	-9.39467
▁огромн	-9.39592
чкой	-9.39596
исты	-9.39653
прашива	-9.39875
▁взросл	-9.39888
гал	-9.40109
▁счастлив	-9.40113
▁грудь	-9.40185
▁кроме	-9.40195
▁помню	-9.40202
щие	-9.40208
сон	-9.40224
чер	-9.40384
▁зло	-9.40443
▁женщине	-9.40632
▁делают	-9.40749
▁коронавирус	-9.40783
▁хватит	-9.40784
▁развод	-9.4082
▁жир	-9.40829
▁любой	-9.40906
гран	-9.41013
▁третий	-9.41085
▁стакан	-9.41112
▁хороший	-9.41181
▁ходил	-9.41304
▁москве	-9.41385
▁шест	-9.41416
▁двор	-9.4144
▁каждо	-9.415
▁бизнес	-9.41543
ляет	-9.41686
▁дальше	-9.41691
▁нему	-9.4177
енной	-9.41852
▁шут	-9.4193
▁отношения	-9.4199
▁работаю	-9.42007
опы	-9.42146
▁ага	-9.42298
▁идут	-9.42545
▁машина	-9.42549
▁мусор	-9.42604
▁качеств	-9.4262
▁рис	-9.42627
▁своему	-9.42627
▁пакет	-9.42641
▁лето	-9.42694
▁любишь	-9.42741
▁поздно	-9.42904
▁ответил	-9.42925
▁боя	-9.42965
▁открыл	-9.43
▁владимир	-9.43201
▁пас	-9.43203
▁действительно	-9.43223
▁новая	-9.43244
▁пришла	-9.43274
▁верну	-9.43411
▁отличается	-9.43519
▁такого	-9.43523
▁дайте	-9.43702
▁экс	-9.43719
▁весел	-9.43777
▁воду	-9.43807
▁приз	-9.43809
▁котором	-9.43836
▁един	-9.43845
▁придется	-9.43952
▁чуть	-9.4412
▁зелен	-9.44152
▁трамп	-9.44192
▁креп	-9.44277
▁коров	-9.443
▁имеет	-9.44341
▁понрави	-9.44448
▁смотрел	-9.44458
▁новые	-9.44478
▁назвал	-9.4449
▁проб	-9.44592
▁окно	-9.44754
▁гораздо	-9.44759
▁хотят	-9.44792
▁собак	-9.44793
▁треть	-9.45097
▁добав	-9.45278
▁вокруг	-9.45385
▁зовут	-9.45386
▁первого	-9.45386
▁русские	-9.45421
▁лесу	-9.45504
▁хи	-9.45523
▁лично	-9.45609
ющие	-9.45801
нец	-9.45971
▁получается	-9.46092
▁голод	-9.4614
▁заметил	-9.46163
▁правительство	-9.46331
▁разговаривают	-9.46417
▁слон	-9.46491
жит	-9.46525
▁первым	-9.46655
▁сэр	-9.46688
▁занят	-9.46711
▁дорож	-9.46958
▁становится	-9.46967
чные	-9.46988
▁полу	-9.47041
▁зарплату	-9.47279
▁солдат	-9.47288
енько	-9.47302
нного	-9.47321
▁волн	-9.47351
ворот	-9.47485
▁хорошая	-9.47561
▁вперед	-9.47615
▁случай	-9.47767
пят	-9.47772
▁заявил	-9.47933
▁брать	-9.47949
ланд	-9.48032
что	-9.48232
дил	-9.4825
▁быстрее	-9.48252
▁завод	-9.484
▁играть	-9.48414
▁связи	-9.48542
▁настоящий	-9.48575
▁гон	-9.48664
▁странно	-9.48822
▁человеку	-9.48873
▁пошл	-9.48918
▁тв	-9.49001
▁право	-9.49218
▁твоей	-9.49261
▁пляж	-9.49264
▁клуб	-9.49275
▁делаешь	-9.49528
▁стороны	-9.49578
▁размер	-9.49588
▁сказали	-9.49663
▁сотрудник	-9.4988
▁шуб	-9.49936
▁машины	-9.49937
▁пойду	-9.50032
▁провод	-9.50042
овые	-9.50128
▁подъезд	-9.50209
нное	-9.50217
▁колбас	-9.50217
▁невест	-9.50517
▁конце	-9.50588
▁совершенно	-9.50712
▁центр	-9.50774
▁нерв	-9.50792
▁иметь	-9.50889
▁проблем	-9.50933
бег	-9.5094
▁дыр	-9.51086
▁женщиной	-9.51147
▁пассажир	-9.51202
▁возьми	-9.51203
▁удалось	-9.51208
▁благо	-9.51215
▁проблема	-9.51334
льник	-9.51397
▁каким	-9.5144
▁попросил	-9.51538
▁водка	-9.51572
▁твое	-9.51737
▁отме	-9.51799
▁любви	-9.51804
▁страна	-9.51807
▁шел	-9.51844
▁действ	-9.51869
▁людям	-9.5187
▁называют	-9.51875
▁негр	-9.51897
▁красивая	-9.51908
рут	-9.5193
▁собрал	-9.51977
▁рассказыва	-9.52011
▁норм	-9.52018
▁нужны	-9.52021
▁нож	-9.52093
▁украине	-9.52206
▁крем	-9.52293
▁вроде	-9.52306
шкой	-9.52375
▁люся	-9.52391
льной	-9.524
▁ходит	-9.52414
ению	-9.52524
▁кино	-9.52538
▁рез	-9.52677
▁анти	-9.52749
▁бросил	-9.52802
сос	-9.52832
▁гаишник	-9.5288
▁петрович	-9.52892
▁пьет	-9.52908
▁опер	-9.5316
▁которую	-9.5322
▁школу	-9.5322
жена	-9.53236
щая	-9.53317
▁волк	-9.53352
▁окна	-9.53422
ологи	-9.53456
▁плох	-9.5353
▁вспомни	-9.53559
▁звезд	-9.5356
▁билет	-9.53627
▁знать	-9.5364
▁мясо	-9.5364
▁автобус	-9.53654
защит	-9.53689
так	-9.53693
▁какого	-9.53715
▁заказ	-9.53732
▁приехал	-9.53811
▁помощь	-9.53902
▁обла	-9.5407
▁страны	-9.54213
▁берет	-9.54222
▁нашего	-9.54273
▁мужчину	-9.54279
▁ужин	-9.54434
лиц	-9.54463
мест	-9.54474
▁посуд	-9.54564
▁семейн	-9.54607
ицей	-9.54667
▁тихо	-9.54683
▁море	-9.54767
тал	-9.54814
▁президента	-9.54814
▁друзей	-9.54932
▁морд	-9.55012
▁самого	-9.55065
буд	-9.55067
▁клад	-9.5509
▁пожар	-9.5514
ган	-9.55257
жение	-9.55277
▁поставил	-9.55285
▁курить	-9.55445
▁квартире	-9.55494
▁спокойно	-9.55625
▁клиент	-9.55626
▁посмотрел	-9.55629
▁сан	-9.55654
▁вышел	-9.55727
▁снег	-9.55742
овый	-9.55938
вшие	-9.55965
▁прекрасно	-9.55973
▁узнать	-9.55974
▁сердце	-9.55974
▁горяч	-9.56009
фон	-9.5604
▁достаточно	-9.56323
▁программист	-9.56329
▁просит	-9.56332
▁учительница	-9.56343
▁потерял	-9.56345
▁останови	-9.56345
▁любим	-9.56421
▁петров	-9.56458
▁кас	-9.56559
▁замет	-9.56571
▁решили	-9.56579
▁судя	-9.56598
▁повод	-9.56604
▁сидоров	-9.56674
▁дорогу	-9.56674
▁подарил	-9.56714
▁власти	-9.56732
▁трусы	-9.56895
▁дает	-9.56937
▁кухне	-9.57028
▁современн	-9.57029
▁тур	-9.57222
▁зарплат	-9.57271
▁вред	-9.57278
▁любил	-9.57358
▁среди	-9.57391
жет	-9.57638
▁показал	-9.57714
▁предложил	-9.57743
▁отдыха	-9.57765
▁враг	-9.57906
▁видишь	-9.57911
▁продукт	-9.5809
▁пришлось	-9.58091
ший	-9.58208
▁разница	-9.58519
▁открывает	-9.58523
▁зл	-9.58542
чной	-9.586
альная	-9.58618
▁бат	-9.58633
▁руках	-9.58665
▁холод	-9.58669
▁пью	-9.58691
▁больно	-9.58765
▁прошло	-9.58876
▁спорт	-9.58934
▁дней	-9.5897
▁гей	-9.59036
▁многие	-9.59165
▁реально	-9.59203
▁школьн	-9.59213
▁довер	-9.59233
▁очередь	-9.59526
мент	-9.59528
▁дешев	-9.59546
▁фото	-9.59554
▁права	-9.59572
▁позвол	-9.59591
▁мира	-9.59654
▁чаще	-9.5966
▁маме	-9.59704
▁старый	-9.59751
▁умею	-9.59774
▁следующий	-9.59987
▁гар	-9.60001
▁польз	-9.60016
▁раб	-9.60049
▁армии	-9.60253
▁возвраща	-9.6054
▁посл	-9.60615
▁парня	-9.60656
▁пишет	-9.60707
▁приходится	-9.60825
▁представляешь	-9.60983
▁женился	-9.61096
▁могли	-9.61142
▁сара	-9.61213
▁другого	-9.61261
▁сыр	-9.61283
▁профессор	-9.61351
▁любовник	-9.61361
цией	-9.61473
кого	-9.61494
▁оказалось	-9.6172
▁свадьбы	-9.6172
▁очередн	-9.6172
▁красот	-9.61807
▁жениться	-9.61877
▁стала	-9.6201
▁срочно	-9.62093
▁простите	-9.62098
▁повтор	-9.62105
ющий	-9.62124
нулся	-9.622
▁знают	-9.62313
▁анекдот	-9.62462
▁понимает	-9.62469
вших	-9.62622
▁выпуск	-9.62735
фер	-9.62799
▁написал	-9.62836
▁грустн	-9.62836
▁увелич	-9.62841
работа	-9.6287
▁смеш	-9.63122
▁лифт	-9.63362
вшего	-9.63459
▁придумал	-9.63616
▁мал	-9.63758
▁игра	-9.63849
▁поступ	-9.6386
▁бесплатно	-9.63963
▁болит	-9.6398
▁пришли	-9.63988
▁отказа	-9.63988
ушки	-9.63994
▁наших	-9.6401
▁нашем	-9.64025
зор	-9.6412
▁строит	-9.64127
стей	-9.64254
▁хозяин	-9.64342
ставил	-9.64394
▁команд	-9.64437
▁достал	-9.645
нюю	-9.6454
▁умеет	-9.64794
▁подруга	-9.64859
▁пяти	-9.64955
▁боюсь	-9.64983
енная	-9.6502
▁стоят	-9.65035
▁обезьян	-9.65104
▁похорон	-9.65105
▁жалуется	-9.65105
▁съел	-9.65117
▁живут	-9.65131
▁дочка	-9.65157
▁лю	-9.65264
▁твою	-9.65488
▁подарок	-9.65488
▁поймал	-9.65492
▁осталось	-9.6558
▁суп	-9.6571
▁руками	-9.65727
▁губ	-9.65819
вшая	-9.65819
▁рано	-9.65896
▁медведев	-9.65945
▁успел	-9.6629
▁мел	-9.6633
▁нашли	-9.66535
▁дедушка	-9.66684
▁проще	-9.66951
▁автомобиль	-9.67425
▁пользу	-9.67434
▁диск	-9.67598
ниц	-9.67628
ляют	-9.67733
▁написано	-9.67817
▁маленькая	-9.67817
▁недели	-9.67957
▁устал	-9.68082
▁маршрут	-9.68211
▁психиатр	-9.68211
▁конфет	-9.68213
тельный	-9.68375
щую	-9.68396
▁колен	-9.68466
▁псих	-9.68495
групп	-9.6855
▁рост	-9.68689
▁ними	-9.68775
▁вино	-9.68838
тесь	-9.68856
▁запомни	-9.69005
▁честно	-9.69096
▁собаку	-9.69113
▁семья	-9.69157
▁потеря	-9.69174
▁часы	-9.69246
▁бутылку	-9.69401
▁россию	-9.69401
▁коньяк	-9.69421
▁принцип	-9.69423
▁вышла	-9.69439
▁полно	-9.69444
▁такую	-9.69708
▁водитель	-9.69805
▁шкаф	-9.69808
▁идти	-9.69879
▁мод	-9.69926
▁обид	-9.69944
▁шесть	-9.70013
▁волос	-9.70192
▁двери	-9.70195
▁обращается	-9.70203
▁мух	-9.70226
▁прыг	-9.70251
▁ген	-9.70317
▁фу	-9.70368
▁врачу	-9.7042
▁станет	-9.70437
▁танк	-9.70515
▁мужем	-9.70596
▁фиг	-9.7069
▁берег	-9.70705
▁коло	-9.70791
истов	-9.70857
моему	-9.70876
▁взгляд	-9.71011
▁проходит	-9.71212
▁кошка	-9.71255
▁внук	-9.71392
▁посмотреть	-9.71418
▁первом	-9.71432
▁машин	-9.71457
▁сидел	-9.71496
▁тест	-9.71663
щим	-9.71681
▁машине	-9.7188
▁этих	-9.71908
▁буд	-9.72224
▁пельмен	-9.72237
▁нужна	-9.72262
▁своем	-9.72262
▁шеф	-9.72267
▁имею	-9.7228
▁волосы	-9.72312
▁рассказывает	-9.72494
▁понятно	-9.72636
▁одновременно	-9.72647
▁таракан	-9.72648
▁зубы	-9.72724
▁взят	-9.72773
▁спит	-9.72929
▁крик	-9.72984
▁другу	-9.73015
▁пир	-9.73046
▁лучший	-9.7306
бирать	-9.73154
▁приятно	-9.73232
▁начинают	-9.73345
▁конец	-9.73357
▁генерал	-9.73462
▁театр	-9.73566
пут	-9.73734
▁ухо	-9.73749
▁больной	-9.73826
▁своими	-9.73881
▁ремонт	-9.73892
▁которым	-9.73895
▁вашего	-9.73903
▁вечно	-9.73916
▁встрети	-9.73926
▁возвращается	-9.7398
▁зоопарк	-9.7431
▁унитаз	-9.7431
▁последний	-9.74312
▁детско	-9.74378
▁целый	-9.74678
▁наркоман	-9.74747
▁слез	-9.74836
▁срок	-9.74958
▁автобусе	-9.75036
▁подруги	-9.75164
▁остальные	-9.75203
▁никого	-9.75256
▁пад	-9.75352
▁помо	-9.75364
▁руч	-9.75531
▁тяжело	-9.75553
▁смерти	-9.75576
▁уходит	-9.75591
▁доллар	-9.75591
▁12	-9.75628
▁граб	-9.75638
▁человеком	-9.7564
▁постель	-9.75649
▁помни	-9.75872
▁видно	-9.7598
▁чувствую	-9.75984
▁кризис	-9.76002
▁выйти	-9.76076
▁убил	-9.76275
▁пошли	-9.76331
▁алкоголь	-9.76429
культур	-9.76433
▁желание	-9.7644
▁понедельник	-9.76858
▁собственно	-9.76858
▁скорее	-9.76859
▁офис	-9.76859
▁русского	-9.76899
▁едет	-9.76962
▁лица	-9.77027
▁числ	-9.77039
ывая	-9.77213
российск	-9.77298
▁гриб	-9.77319
▁громко	-9.77408
спорт	-9.77488
▁каждого	-9.77541
▁которое	-9.77756
▁первой	-9.77757
▁нечего	-9.77766
▁ничто	-9.77834
▁считать	-9.77874
▁тю	-9.77948
▁милая	-9.78041
▁некоторые	-9.78157
▁пенсионер	-9.78157
▁девушек	-9.78157
▁парашют	-9.78157
▁раду	-9.78313
▁спал	-9.78432
▁тепл	-9.78436
▁встав	-9.78554
▁другим	-9.78603
▁психолог	-9.7873
▁дворе	-9.78755
носить	-9.78914
▁коллег	-9.79078
▁платье	-9.79089
▁спирт	-9.79126
▁сема	-9.79173
▁однако	-9.79221
▁канал	-9.79237
ический	-9.79443
▁невозможно	-9.79473
▁дороге	-9.79473
▁жопу	-9.79474
▁демократ	-9.79475
▁настроение	-9.79476
писать	-9.79587
▁бил	-9.79665
▁запах	-9.79819
▁мадам	-9.7993
▁коля	-9.79932
▁мысли	-9.79944
▁запрет	-9.80165
▁учил	-9.80172
▁ленин	-9.80273
▁проход	-9.80322
ответ	-9.80354
▁заканчива	-9.8036
▁границ	-9.80407
евич	-9.80432
▁чисто	-9.80584
▁пив	-9.80686
открыв	-9.80781
▁очереди	-9.80806
▁ребята	-9.80806
▁сзади	-9.80823
▁русских	-9.80841
▁паспорт	-9.80844
▁легче	-9.80981
▁другом	-9.81054
▁часть	-9.81147
▁собаки	-9.81257
▁головой	-9.81317
▁ряд	-9.8145
▁родился	-9.81463
▁темно	-9.81475
▁наоборот	-9.81705
▁думать	-9.81709
▁трезв	-9.81746
▁днем	-9.81854
▁английск	-9.82056
тряс	-9.82086
▁дух	-9.82146
▁килограмм	-9.82157
▁отлично	-9.82185
▁девочки	-9.8221
▁турист	-9.82297
слаб	-9.82309
▁холодно	-9.82339
▁вашем	-9.82362
ющего	-9.82365
▁радио	-9.82536
▁секунд	-9.82612
▁налог	-9.82849
▁блондинки	-9.83069
▁украины	-9.83069
нести	-9.83141
▁фигур	-9.83146
▁лап	-9.83162
▁носки	-9.83396
▁америка	-9.83431
▁глядя	-9.83528
▁первое	-9.83531
▁козл	-9.83537
▁борщ	-9.83548
▁возле	-9.83578
▁типа	-9.83852
▁ушел	-9.83876
▁выпив	-9.83956
▁плав	-9.83977
▁лекарств	-9.83988
▁смотрят	-9.84033
носят	-9.84052
▁чувств	-9.84095
▁скажу	-9.84104
если	-9.84207
ллер	-9.8426
▁эх	-9.8426
▁ракет	-9.84281
▁делал	-9.84313
водить	-9.84381
▁молодая	-9.84431
▁внимание	-9.84451
▁яблок	-9.84465
казывают	-9.84485
▁отца	-9.8452
▁умный	-9.84563
▁счастливы	-9.84563
▁забыв	-9.84663
▁боже	-9.84666
▁заработ	-9.84678
▁вырос	-9.84679
▁объясни	-9.84693
▁толк	-9.84849
▁конца	-9.84865
▁абсолютно	-9.84916
▁виноват	-9.84942
гер	-9.85168
▁одним	-9.85252
▁черный	-9.85262
▁ест	-9.85404
чным	-9.85417
▁комар	-9.85458
▁собач	-9.85531
▁удовольствие	-9.85549
▁гинеколог	-9.85853
▁звер	-9.8592
▁найдет	-9.85936
▁бывают	-9.85953
▁раздел	-9.86008
▁живу	-9.86081
имся	-9.86235
ируют	-9.86266
▁зарабатыва	-9.86325
▁искусств	-9.86325
▁согласи	-9.86333
▁новых	-9.86346
▁малыш	-9.86357
▁цирк	-9.86381
▁свят	-9.86399
▁птиц	-9.86428
▁муч	-9.86468
▁ногу	-9.86501
▁сломал	-9.86507
▁факт	-9.86724
▁получить	-9.86788
▁последнее	-9.868
▁воздух	-9.86801
▁опозда	-9.86802
ающий	-9.86861
▁писать	-9.87062
▁запад	-9.87126
▁масс	-9.87263
▁обещал	-9.87275
▁неужели	-9.87275
▁позна	-9.87346
▁таких	-9.87443
▁отключ	-9.87453
▁принял	-9.87571
▁жених	-9.87652
▁шоколад	-9.87753
▁российские	-9.87754
▁сижу	-9.87811
▁штук	-9.87962
▁министр	-9.88112
▁айфон	-9.88239
▁переход	-9.88407
▁плохая	-9.88418
▁любимая	-9.8842
▁продаж	-9.88551
▁ман	-9.88577
▁грузин	-9.88614
▁покупать	-9.88717
▁попада	-9.88914
▁медвед	-9.88951
▁перестал	-9.89122
▁ключ	-9.89177
▁выпил	-9.89186
▁характер	-9.89202
▁хирург	-9.89202
▁тяжел	-9.89231
▁думают	-9.89318
▁любимый	-9.8934
▁книгу	-9.89403
▁обман	-9.89536
▁тело	-9.89635
▁держит	-9.89662
▁лошадь	-9.8969
▁российских	-9.89691
▁большая	-9.89692
▁бабы	-9.89942
крупн	-9.89976
дорож	-9.90025
▁земле	-9.90195
▁новое	-9.90251
▁здоровье	-9.90261
▁командир	-9.90571
▁закрыт	-9.90616
▁выглядит	-9.90673
▁балкон	-9.90716
▁немец	-9.90731
езжает	-9.9105
▁цены	-9.91126
▁кончил	-9.91143
▁тормоз	-9.91168
▁грязн	-9.91168
▁указ	-9.91175
▁читать	-9.91182
▁раздев	-9.91314
чную	-9.91508
ометр	-9.91561
▁связ	-9.91665
▁пойдем	-9.91666
▁определи	-9.91668
▁хотелось	-9.91767
▁груз	-9.91776
класс	-9.91784
живает	-9.91788
▁количество	-9.91856
▁объяснить	-9.91905
▁сложно	-9.91948
▁расста	-9.92046
▁институт	-9.92166
▁первая	-9.92168
▁фраза	-9.92172
▁правило	-9.92173
▁одев	-9.92188
иваются	-9.92262
▁дорого	-9.92312
▁встал	-9.92503
▁костюм	-9.92668
▁печень	-9.9267
▁дерево	-9.92683
▁привез	-9.92694
▁движ	-9.92709
▁золото	-9.92714
▁считают	-9.92739
▁называть	-9.9276
▁умные	-9.92928
▁ран	-9.92972
▁закрыв	-9.93017
▁кис	-9.93091
▁доченька	-9.93174
▁служб	-9.93174
▁вирус	-9.9318
▁картин	-9.93253
▁плеч	-9.93373
▁известно	-9.93541
▁смерть	-9.93681
▁времена	-9.93683
▁первые	-9.93683
▁провел	-9.94165
▁пацан	-9.94216
▁микро	-9.94264
▁каждой	-9.94309
▁вернуть	-9.94449
▁придет	-9.94484
▁мент	-9.94487
▁посети	-9.94588
▁сидя	-9.94642
▁бензин	-9.94704
▁велосипед	-9.94704
▁математик	-9.94704
▁является	-9.94704
▁свер	-9.94737
▁молоко	-9.94804
▁кажды	-9.94882
▁гал	-9.94991
▁труб	-9.95069
▁чукча	-9.9522
▁хвост	-9.95228
▁прежде	-9.95228
▁никому	-9.9523
▁наркотик	-9.95253
▁родителей	-9.95261
▁иначе	-9.95284
▁кафе	-9.95298
▁помогает	-9.95401
▁торт	-9.95565
▁марта	-9.95578
▁ждет	-9.95612
▁мамы	-9.95714
▁диплом	-9.95738
украински	-9.95738
▁сидеть	-9.95738
▁школы	-9.95738
▁компании	-9.95739
▁звук	-9.95768
▁крым	-9.95867
▁правду	-9.96048
▁жаль	-9.962
▁читает	-9.96308
▁скрип	-9.96323
▁стоматолог	-9.96782
▁дядя	-9.96783
ища	-9.96784
▁музыка	-9.96792
▁совесть	-9.96795
▁выпить	-9.96829
▁роман	-9.96838
▁пробовал	-9.96856
▁двадцать	-9.96856
▁хорошее	-9.96865
▁ушла	-9.96871
▁другую	-9.96986
▁петр	-9.97185
▁сможет	-9.97308
▁жалко	-9.97411
▁шанс	-9.97415
▁страх	-9.97478
▁платить	-9.97699
▁суббот	-9.97837
▁мастер	-9.97842
▁сюда	-9.9796
▁бабка	-9.98069
бьет	-9.981
ющим	-9.98332
правлен	-9.98369
▁восемь	-9.98369
▁строй	-9.98438
▁вывод	-9.98446
▁самым	-9.98496
▁ищет	-9.98698
▁эффект	-9.98904
▁утвержда	-9.98904
▁зеркало	-9.98904
▁будильник	-9.98904
▁предлагаю	-9.98904
▁поговори	-9.98909
▁беспоко	-9.98916
▁стул	-9.98929
▁сахар	-9.98944
▁сдох	-9.98948
▁круж	-9.98961
▁важно	-9.98965
ступает	-9.98996
▁требую	-9.99024
▁падает	-9.99054
крыть	-9.99076
ставляет	-9.99309
▁кровати	-9.99442
▁карантин	-9.99442
▁приглаш	-9.9946
▁искать	-9.99472
▁приходил	-9.99513
▁входит	-9.99607
▁хорошие	-9.9963
▁пьют	-9.99651
▁власть	-9.99727
альным	-9.99754
▁пишут	-9.99987
▁поручик	-9.99988
▁название	-10.0004
ические	-10.0005
пред	-10.0008
▁комнату	-10.0021
▁говори	-10.0025
▁счастья	-10.0053
▁грамм	-10.0053
▁работник	-10.0053
▁жопа	-10.0053
▁фран	-10.0054
▁принц	-10.0054
▁говно	-10.0057
▁веду	-10.0059
крат	-10.006
▁глазами	-10.0074
▁бомж	-10.0075
▁позвони	-10.0077
▁салат	-10.0087
ющая	-10.0088
▁василий	-10.0108
▁читал	-10.0117
▁марк	-10.0118
▁средство	-10.0121
▁состав	-10.0123
▁видео	-10.0132
русски	-10.0137
▁начать	-10.0139
▁контрол	-10.0139
▁рф	-10.0142
▁хитр	-10.0153
▁существует	-10.0162
▁жрать	-10.0163
▁конкурс	-10.0165
▁словами	-10.0168
▁высоко	-10.0172
▁затем	-10.0184
▁нрав	-10.0212
долго	-10.0213
▁крокодил	-10.0217
▁исчез	-10.0217
▁российский	-10.0217
▁супруг	-10.0218
▁ездит	-10.0219
▁отсутствие	-10.0222
▁юмор	-10.0223
▁находится	-10.0228
▁дама	-10.0237
▁новой	-10.0238
▁готовить	-10.0265
драж	-10.0268
▁бюджет	-10.0273
▁обязан	-10.0273
▁первую	-10.0273
▁родственн	-10.0273
▁улицу	-10.0275
▁помнишь	-10.0276
▁минет	-10.0288
▁девят	-10.0294
▁государство	-10.0306
ической	-10.0317
▁асфальт	-10.0329
▁радостн	-10.0329
▁зимой	-10.0329
▁нравятся	-10.0331
▁смотришь	-10.0335
▁начинается	-10.0338
▁получится	-10.0349
▁дебил	-10.0359
▁будь	-10.0361
▁играет	-10.0365
▁сорок	-10.037
фиц	-10.0377
▁наруш	-10.0378
▁симпатичн	-10.0385
▁кровь	-10.0388
▁миллионов	-10.0405
▁рукой	-10.0408
▁друзьями	-10.041
▁поиск	-10.0427
▁ссор	-10.0427
▁оставил	-10.0431
▁любить	-10.0433
▁останавливает	-10.0439
▁процесс	-10.0442
▁внутри	-10.0443
▁камер	-10.0445
▁шаг	-10.0452
▁крест	-10.0455
▁представь	-10.0467
▁достав	-10.0487
▁обнаружил	-10.0498
▁детям	-10.0498
▁внутренн	-10.0498
▁район	-10.0499
▁около	-10.05
▁режим	-10.05
▁козел	-10.05
▁украл	-10.0502
▁древн	-10.0515
▁просил	-10.052
▁добрый	-10.052
▁ногами	-10.0525
▁шум	-10.054
▁извини	-10.0541
▁футболист	-10.0554
▁неожиданно	-10.0555
▁кровать	-10.0557
▁скандал	-10.056
▁25	-10.0563
▁далеко	-10.0566
▁помните	-10.0576
▁животных	-10.0579
▁изменил	-10.0594
▁солнце	-10.0613
▁московск	-10.0613
▁документ	-10.0613
▁берут	-10.0631
▁наташ	-10.0634
▁снял	-10.064
▁специально	-10.0665
▁решение	-10.0671
▁нарко	-10.0681
▁включи	-10.0681
▁хран	-10.0691
▁твор	-10.0707
▁знак	-10.0712
▁произошл	-10.0729
▁финансов	-10.0729
▁пенсию	-10.0729
▁капитан	-10.0729
▁услуг	-10.0729
▁земля	-10.0729
▁удивлен	-10.0729
▁деньгами	-10.0729
▁орет	-10.073
▁череп	-10.0731
▁всякий	-10.0736
▁честь	-10.0758
▁двумя	-10.0787
▁сиськи	-10.079
▁физик	-10.079
▁показать	-10.08
▁душе	-10.0842
▁единственный	-10.0846
▁украина	-10.0846
▁следует	-10.0847
▁хорошего	-10.0847
▁скажет	-10.0853
▁садик	-10.0877
▁шар	-10.0881
вернул	-10.0887
▁москвы	-10.0905
▁большие	-10.0906
▁включа	-10.0908
▁предложение	-10.0909
▁лыс	-10.0916
▁видеть	-10.0918
▁муз	-10.0923
▁вернулся	-10.0924
▁зарплаты	-10.0925
голос	-10.094
▁вниз	-10.0944
▁буратино	-10.0965
▁сантехник	-10.0965
▁рецепт	-10.0965
▁последние	-10.0965
▁дочери	-10.0966
▁мэр	-10.0967
слушал	-10.0975
▁сложн	-10.1002
▁зря	-10.1027
▁судья	-10.1041
▁налогов	-10.1053
▁держи	-10.1055
▁200	-10.106
▁медленно	-10.1085
▁договор	-10.1085
▁алкаш	-10.1086
▁гроб	-10.1087
▁говоришь	-10.1088
▁дни	-10.1094
▁запрещен	-10.1116
▁сделай	-10.1119
▁состоя	-10.1136
▁прапорщик	-10.1146
▁увидеть	-10.1146
▁попасть	-10.1147
▁обрати	-10.1149
▁причем	-10.1151
▁ясно	-10.1171
продавец	-10.1177
▁призыв	-10.1182
▁бутылки	-10.1207
▁людьми	-10.1207
▁стыдно	-10.1207
▁кричал	-10.1207
▁груди	-10.1207
▁новость	-10.1208
▁везде	-10.1208
▁неудач	-10.1209
▁труп	-10.1209
▁помочь	-10.121
▁организм	-10.1211
▁большинство	-10.1213
▁помогите	-10.1218
▁литр	-10.1245
▁неприятн	-10.1268
▁виски	-10.1276
▁медведь	-10.1289
▁победил	-10.1301
▁интеллигент	-10.133
▁успех	-10.133
▁мертв	-10.1333
▁стоял	-10.1338
▁спальн	-10.1347
▁киев	-10.1366
▁душа	-10.1368
▁пропал	-10.1381
▁намного	-10.1383
▁встретил	-10.1388
▁валя	-10.1391
▁похмел	-10.1393
▁смех	-10.1395
▁забот	-10.14
▁никаких	-10.1416
▁спроси	-10.1436
▁разбил	-10.1452
▁полчаса	-10.1454
▁дождь	-10.1455
▁будущее	-10.1455
▁вторая	-10.1456
▁глух	-10.1457
▁успев	-10.1467
▁разум	-10.1468
считал	-10.1484
▁цель	-10.1498
▁тепло	-10.1517
▁навстречу	-10.1517
▁незнаком	-10.1517
▁оптимист	-10.1517
▁наступил	-10.1517
▁экран	-10.1517
▁мысль	-10.1519
▁сплю	-10.1521
вшим	-10.1525
▁электро	-10.1536
▁общего	-10.155
▁отдых	-10.1578
▁автомат	-10.1578
▁алкоголик	-10.158
▁благодаря	-10.158
▁оргазм	-10.158
▁замечательн	-10.158
▁полностью	-10.1582
▁тя	-10.1588
▁серьезно	-10.1607
▁положил	-10.1609
▁трубку	-10.1612
▁хер	-10.1624
▁убеж	-10.1627
▁пистолет	-10.1644
▁пахнет	-10.1644
▁рыбалку	-10.1644
▁захотел	-10.1645
▁владимирович	-10.1646
▁иванович	-10.1648
▁север	-10.1648
▁миш	-10.1662
резал	-10.1702
▁адвокат	-10.1708
▁вовремя	-10.1708
▁назнач	-10.1709
▁большим	-10.1709
▁гражданин	-10.1732
▁устраива	-10.1732
▁выходные	-10.1748
▁впервые	-10.1773
▁единственно	-10.1773
▁красивые	-10.1773
▁письмо	-10.1773
▁фразу	-10.1773
▁штаны	-10.1773
▁родителям	-10.1773
▁вызывает	-10.1773
▁сборной	-10.1774
▁войны	-10.178
▁стрем	-10.1781
▁выиграл	-10.1784
▁вагон	-10.1784
▁тещу	-10.1796
▁сука	-10.1798
▁старик	-10.18
бирают	-10.1811
пустить	-10.182
▁боится	-10.1826
▁запас	-10.1832
▁живем	-10.1834
▁превраща	-10.1838
▁концерт	-10.1844
▁сайт	-10.1854
▁заниматься	-10.1861
▁устроил	-10.1871
▁реклама	-10.1903
▁двига	-10.1903
▁проснулся	-10.1907
▁спортивн	-10.1908
▁чемпионат	-10.1909
▁пожал	-10.1914
▁воспита	-10.1919
▁свеч	-10.1946
бежать	-10.1957
▁рога	-10.1966
▁беседуют	-10.1969
▁маленькие	-10.1969
▁означает	-10.1969
▁премьер	-10.1969
▁актив	-10.1969
▁повезло	-10.1969
▁кстати	-10.197
▁бабушки	-10.1978
▁салон	-10.1986
▁человеч	-10.1998
▁другое	-10.1998
▁чудо	-10.2009
▁просыпается	-10.2035
▁удивля	-10.2035
▁сверху	-10.2035
▁предмет	-10.2037
▁желез	-10.2039
▁процент	-10.2041
▁угол	-10.2043
▁новом	-10.2051
▁требуется	-10.2052
▁спросить	-10.2059
ношен	-10.2065
▁позвонил	-10.2072
ющее	-10.2082
▁задач	-10.2087
▁площад	-10.2102
▁максим	-10.2102
▁расскажи	-10.2102
▁прочитал	-10.2103
▁привык	-10.2108
▁удобн	-10.2108
▁залез	-10.2113
▁трое	-10.2126
▁автомобиля	-10.2169
▁происходит	-10.2169
▁оружие	-10.2169
▁память	-10.2169
▁кролик	-10.2169
▁говоря	-10.2194
▁обидел	-10.2195
ическая	-10.2199
▁слышит	-10.2223
▁бухгалтер	-10.2236
▁населения	-10.2236
▁учиться	-10.224
▁задницу	-10.2243
▁посыл	-10.2254
▁приносит	-10.226
▁послал	-10.2263
▁супер	-10.2265
▁собирается	-10.2271
▁твоего	-10.2272
▁серьез	-10.2276
▁необходимо	-10.2276
▁плакат	-10.2285
▁слеп	-10.2293
▁корпоратив	-10.2304
▁порядке	-10.2304
▁практически	-10.2304
▁беременна	-10.2305
▁вторую	-10.2306
▁гарант	-10.2307
▁понят	-10.2326
▁резко	-10.2338
▁перевод	-10.2341
▁бутылка	-10.2373
▁детства	-10.2373
▁рулем	-10.2373
▁выстрел	-10.2374
▁ванной	-10.2375
▁полиция	-10.2376
▁видимо	-10.2376
▁увидев	-10.2377
▁исполни	-10.2383
▁старости	-10.2399
изации	-10.2402
▁баран	-10.2407
потом	-10.2409
грыз	-10.2412
останов	-10.2413
▁отправил	-10.2413
пускает	-10.243
▁короче	-10.2443
▁русском	-10.2447
▁ждать	-10.2473
▁кошку	-10.2477
коммун	-10.251
▁сожалению	-10.2511
▁граф	-10.2512
▁анализ	-10.2512
▁хакер	-10.2516
▁половина	-10.2518
вспомина	-10.2524
▁болт	-10.2535
▁заплати	-10.255
▁армию	-10.2581
▁период	-10.2582
▁оттуда	-10.2583
▁группа	-10.2592
жусь	-10.2611
▁запретил	-10.2626
▁преврат	-10.2652
▁ответственн	-10.2652
▁торгов	-10.2653
▁головы	-10.2653
▁назвать	-10.266
▁попробуйте	-10.2664
▁пальца	-10.2671
курс	-10.2684
▁супермаркет	-10.2723
▁супружеск	-10.2723
▁таблетки	-10.2723
▁челябинск	-10.2723
▁слушать	-10.2723
▁опасно	-10.2724
▁тверд	-10.2724
▁редко	-10.2727
правлять	-10.2727
▁крайне	-10.2728
слав	-10.2739
▁ветер	-10.2742
▁пытается	-10.2751
▁ровно	-10.2769
▁хор	-10.2774
▁производств	-10.2794
▁преступн	-10.2794
▁еврея	-10.2794
▁свидание	-10.2794
▁желания	-10.2795
▁коммент	-10.2795
рожден	-10.2796
▁нефть	-10.2805
▁держать	-10.2838
▁медицинск	-10.2866
▁статистик	-10.2866
▁баксов	-10.2866
▁сапог	-10.2868
▁скучно	-10.2871
▁поднимает	-10.2881
▁парню	-10.289
▁семен	-10.2901
▁журналист	-10.2912
▁футбольн	-10.2913
▁застав	-10.2923
▁кандидат	-10.2938
▁евреи	-10.2938
▁истории	-10.2938
▁рассказал	-10.2938
▁агент	-10.2939
▁зима	-10.2941
▁гараж	-10.2947
▁слава	-10.295
▁париж	-10.2961
▁спрашиваю	-10.2971
▁требует	-10.2992
▁автомобиле	-10.3011
▁свадьбе	-10.3011
▁штраф	-10.3011
▁землю	-10.3012
мужик	-10.3014
▁достиг	-10.3017
первых	-10.3019
▁радость	-10.3022
▁белье	-10.3029
▁интересует	-10.303
▁играют	-10.304
▁человеческ	-10.3053
▁читаю	-10.3055
▁имел	-10.3056
▁демо	-10.306
▁развит	-10.306
▁выбрал	-10.3085
▁кольцо	-10.3085
▁начнет	-10.3088
▁называл	-10.3096
▁молодец	-10.31
▁правила	-10.3108
▁играл	-10.3131
▁выступ	-10.3135
▁состоит	-10.3147
▁бомб	-10.315
▁каждая	-10.3159
▁деревне	-10.3159
▁установил	-10.3159
▁хлоп	-10.316
▁прекрати	-10.3161
▁гром	-10.3171
тянул	-10.3189
▁поднял	-10.322
▁нагл	-10.3233
▁настоящая	-10.3234
▁парикмахер	-10.3234
▁появился	-10.3234
▁выяснил	-10.3234
▁объявил	-10.3234
▁санкции	-10.3234
▁картошку	-10.3234
▁обсужда	-10.3234
▁митинг	-10.3234
▁рынке	-10.3234
▁пенсии	-10.3234
▁кричат	-10.3235
▁201	-10.3238
▁вокзал	-10.3243
▁государств	-10.3291
▁некоторых	-10.3309
▁внимательно	-10.3309
▁олигарх	-10.3309
▁спортсмен	-10.3309
▁подумать	-10.3309
▁едят	-10.331
▁поможет	-10.331
▁полиции	-10.3312
▁жертв	-10.3313
▁помощи	-10.3313
▁растут	-10.3319
водят	-10.3322
▁банан	-10.3325
▁протест	-10.3326
▁собран	-10.3327
▁вылез	-10.3334
▁журнал	-10.3336
▁государственн	-10.3357
тащил	-10.3382
▁профессионал	-10.3385
▁использу	-10.3385
▁прекрасны	-10.3385
▁возьму	-10.3385
▁кушать	-10.3385
▁сторож	-10.3385
▁гроз	-10.3386
▁танцу	-10.3386
▁новым	-10.3412
▁осень	-10.3412
▁ученик	-10.342
казывал	-10.3433
▁отпусти	-10.3437
берем	-10.3442
▁аэропорт	-10.3461
▁интеллект	-10.3461
▁февраля	-10.3461
▁дневник	-10.3461
▁послушай	-10.3461
▁изобрет	-10.3461
▁помидор	-10.3461
▁полгода	-10.3462
▁чудес	-10.3462
▁пояс	-10.3465
▁особо	-10.3467
▁блюд	-10.3491
▁двойн	-10.3502
▁сделаю	-10.3503
▁брюк	-10.3517
▁склад	-10.3518
ических	-10.3519
кладывает	-10.3529
▁болезнь	-10.3538
▁ощущение	-10.3538
▁патриот	-10.3538
▁сидишь	-10.3538
▁покупает	-10.3538
▁захват	-10.3539
▁огород	-10.3539
▁можем	-10.3539
▁интим	-10.3539
▁сериал	-10.3541
▁палец	-10.3549
▁спишь	-10.3558
▁ночам	-10.356
▁слабо	-10.3593
▁воспитан	-10.3597
▁окружающ	-10.3615
▁фамилия	-10.3615
▁кладбище	-10.3615
▁вещь	-10.3616
▁сергей	-10.3616
▁одесск	-10.3616
▁жопе	-10.3616
▁лягу	-10.3617
▁сделан	-10.3621
▁масло	-10.3622
▁слух	-10.3623
▁сестра	-10.3624
▁остров	-10.3627
▁мобильник	-10.3641
▁овощ	-10.3643
▁крыс	-10.3643
▁шарик	-10.3655
▁скорость	-10.3692
▁космонавт	-10.3694
▁популярн	-10.3694
▁вполне	-10.3694
▁здрав	-10.3694
▁сильнее	-10.3694
▁посадил	-10.3694
▁надеюсь	-10.3695
▁ежик	-10.3696
▁забрал	-10.3697
▁желуд	-10.3698
йдите	-10.3699
▁погода	-10.3702
▁извест	-10.3704
изация	-10.3711
▁лыж	-10.3724
▁крови	-10.3727
▁перепис	-10.3733
▁мерседес	-10.3772
▁правительства	-10.3772
▁девчонк	-10.3772
▁красавиц	-10.3772
▁ехать	-10.3772
▁список	-10.3773
▁роддом	-10.3773
▁подошел	-10.3773
▁дольше	-10.3773
▁провести	-10.3773
▁карьер	-10.3775
▁помещ	-10.3775
▁состоянии	-10.3777
▁тянет	-10.3777
▁признак	-10.3779
▁вовсе	-10.3783
ставьте	-10.3791
▁рак	-10.3822
▁прогул	-10.385
▁маленьким	-10.3852
▁сволочь	-10.3852
▁услышал	-10.3852
▁испуга	-10.3852
▁еды	-10.3871
берите	-10.3876
▁кида	-10.3876
▁вызвал	-10.3879
▁союз	-10.388
▁пенсионно	-10.3932
▁дерьмо	-10.3932
▁вверх	-10.3932
▁детство	-10.3932
▁съед	-10.3932
▁ближе	-10.3932
▁приятн	-10.3941
▁француз	-10.3968
▁возможность	-10.3974
▁мобильн	-10.3987
▁лучшие	-10.4012
▁бумаги	-10.4012
▁достает	-10.4016
ирую	-10.4016
▁пзд	-10.4035
▁ловит	-10.407
енький	-10.4093
▁смартфон	-10.4094
▁специалист	-10.4094
▁транспорт	-10.4094
▁одноклассник	-10.4094
▁изобрел	-10.4094
▁пойдет	-10.4097
▁десяти	-10.4098
▁получилось	-10.41
бросил	-10.4103
▁встретились	-10.4107
▁вызов	-10.4109
▁знакомств	-10.411
▁админ	-10.4125
▁подряд	-10.4176
▁угодно	-10.4176
▁заболел	-10.4176
▁дважды	-10.4176
▁стекло	-10.4178
▁состояние	-10.4192
▁птич	-10.4197
ического	-10.4248
▁внезапно	-10.4258
▁военкомат	-10.4258
▁джентльмен	-10.4258
▁насколько	-10.4258
▁свободно	-10.4258
▁успешно	-10.4258
▁москву	-10.4258
▁американцы	-10.4258
▁кошелек	-10.4258
▁валуев	-10.4258
▁уровень	-10.4258
▁музыку	-10.4258
▁заряд	-10.4259
▁второго	-10.426
▁202	-10.4262
▁идешь	-10.4272
этаж	-10.4273
тирать	-10.4275
пишите	-10.4292
▁запрещ	-10.4299
▁правильн	-10.4305
когда	-10.4329
▁естественн	-10.4342
▁свадьбу	-10.4342
▁памятник	-10.4342
▁порошенко	-10.4342
▁отвечаю	-10.4342
▁учителя	-10.4342
армян	-10.4342
▁открываю	-10.4348
▁пойму	-10.435
▁пойти	-10.4354
▁арест	-10.4385
▁кадр	-10.4397
▁искал	-10.4416
▁категори	-10.4426
▁уважаемые	-10.4426
▁аккурат	-10.4426
▁диалог	-10.4426
▁брюнет	-10.4426
▁большое	-10.4426
▁мечты	-10.4426
▁сильный	-10.4426
▁плачет	-10.4427
▁робот	-10.4427
▁китае	-10.4433
прыг	-10.4452
▁ленив	-10.4494
▁коллектив	-10.451
▁неплохо	-10.451
▁тридцать	-10.451
▁пригласил	-10.451
▁табличк	-10.451
▁космос	-10.451
▁чемодан	-10.4511
▁талант	-10.4511
▁жители	-10.4511
▁покупаю	-10.4512
▁фима	-10.452
гнать	-10.4525
▁стене	-10.4528
▁брачн	-10.4586
которое	-10.4589
вовочка	-10.4591
▁исключительно	-10.4596
▁милиционер	-10.4596
▁напоминает	-10.4596
▁ненавижу	-10.4596
▁ошибки	-10.4596
▁подсудим	-10.4596
▁обеспеч	-10.4596
▁волшебн	-10.4596
▁больнице	-10.4596
▁удивительно	-10.4596
▁бежит	-10.4596
▁безопасности	-10.4598
▁умеешь	-10.4598
▁погиб	-10.4599
▁сезон	-10.4601
▁надежн	-10.4606
▁стриптиз	-10.4682
▁кирпич	-10.4682
▁обнаружен	-10.4682
▁свадьба	-10.4682
▁становятся	-10.4682
▁огранич	-10.4682
▁каждую	-10.4682
▁коридор	-10.4682
▁фсб	-10.4683
▁петя	-10.4687
▁китайски	-10.4708
авляю	-10.4713
▁взрыв	-10.476
▁неправильно	-10.4769
▁порядочн	-10.4769
▁сержант	-10.4769
▁сохрани	-10.4769
▁одеяло	-10.4769
▁привлека	-10.4769
▁никуда	-10.477
▁младш	-10.4771
▁цифр	-10.4773
▁делятся	-10.4775
▁удивит	-10.4781
▁мудак	-10.4782
являются	-10.4808
▁праздн	-10.4823
▁глубоко	-10.4857
▁оказался	-10.4857
▁отечественн	-10.4857
▁появляется	-10.4857
▁предупрежда	-10.4857
▁кухню	-10.4857
▁монитор	-10.4857
▁адрес	-10.4857
▁довольно	-10.4857
▁охотник	-10.4857
▁снизу	-10.4857
▁съем	-10.4858
▁принимать	-10.4858
▁наук	-10.4874
▁пух	-10.4876
▁храп	-10.489
▁признал	-10.4895
ителем	-10.491
▁попробуй	-10.493
падает	-10.4935
▁температур	-10.4945
▁террорист	-10.4945
▁церковь	-10.4945
▁пессимист	-10.4945
▁января	-10.4945
▁операции	-10.4945
▁выражение	-10.4945
▁петька	-10.4946
▁мешает	-10.4946
▁водкой	-10.4947
▁минус	-10.4955
▁построил	-10.4971
▁алкоголя	-10.5034
▁аппарат	-10.5034
▁настоящие	-10.5034
▁парадокс	-10.5034
▁аптеке	-10.5034
▁собчак	-10.5034
▁образование	-10.5034
тягивает	-10.5035
▁пальцем	-10.5035
▁доказал	-10.5035
▁понимать	-10.5038
▁утренн	-10.5043
▁наказан	-10.5046
ведения	-10.5049
▁ванну	-10.5074
средств	-10.511
▁америке	-10.5125
▁философ	-10.5125
▁лондон	-10.5125
▁половину	-10.5125
▁высоки	-10.5132
ременно	-10.5134
▁страниц	-10.5146
▁пожалуй	-10.521
▁объявлен	-10.521
▁несчастн	-10.5215
▁появилась	-10.5215
▁история	-10.5215
▁водителя	-10.5216
▁лошади	-10.5216
▁подожди	-10.5216
▁остальное	-10.5216
▁убивает	-10.5219
▁букет	-10.522
▁считаю	-10.522
▁надоело	-10.5221
ическое	-10.5236
▁лайк	-10.5274
▁троллейбус	-10.5307
▁впечатление	-10.5307
▁порядок	-10.5307
▁услышать	-10.5307
▁предлагает	-10.5307
▁боксер	-10.5307
▁минимум	-10.5307
▁зависит	-10.5307
▁ватсон	-10.5307
▁умереть	-10.5309
▁подруге	-10.531
▁тетя	-10.5312
▁вампир	-10.5319
▁количеств	-10.5364
▁смотря	-10.5395
▁лучшая	-10.54
▁мотоцикл	-10.54
▁николай	-10.54
▁общественно	-10.54
▁поскольку	-10.54
▁кинотеатр	-10.54
▁больницу	-10.5406
▁бьют	-10.5408
▁тигр	-10.5425
▁признан	-10.5434
▁спец	-10.5436
▁непонятно	-10.5493
▁пообещал	-10.5493
▁вынужден	-10.5493
▁одолжи	-10.5493
▁доступ	-10.5493
▁лифчик	-10.5493
▁уменьш	-10.5494
▁инфо	-10.5494
▁кассир	-10.5494
▁внимания	-10.5494
▁курорт	-10.5495
▁спеши	-10.5496
▁найден	-10.5499
▁сумо	-10.5511
глянул	-10.5514
▁национально	-10.5516
▁засып	-10.5534
▁подскажите	-10.5588
▁рассказать	-10.5588
▁реформ	-10.5588
▁съесть	-10.5588
▁пешеход	-10.5588
▁цыган	-10.5588
▁пьешь	-10.5588
▁полковник	-10.5588
▁прикинь	-10.5588
▁земли	-10.5589
▁новогодни	-10.5593
▁отсутств	-10.5674
▁согласно	-10.5683
▁напротив	-10.5683
▁осозна	-10.5683
▁вероятно	-10.5683
▁положение	-10.5683
▁одинаковы	-10.5683
глядел	-10.5684
▁сутки	-10.5686
ступления	-10.5686
теперь	-10.5687
▁японск	-10.5687
ведение	-10.5708
▁плот	-10.5762
настоящему	-10.5779
▁москвич	-10.5779
▁наполовину	-10.5779
▁появились	-10.5779
▁нынешн	-10.5779
▁москва	-10.5779
▁детьми	-10.5779
▁убийств	-10.578
▁узнаю	-10.5781
▁коротко	-10.5782
▁флаг	-10.5783
▁прожить	-10.5784
▁восста	-10.5785
▁водой	-10.5788
▁узнав	-10.5788
вязан	-10.5831
▁единственная	-10.5876
▁аптеку	-10.5876
▁израиль	-10.5876
▁детский	-10.5877
▁огонь	-10.5878
▁будущем	-10.5878
вшему	-10.5898
▁ставит	-10.5938
▁прикол	-10.5942
▁инспектор	-10.5974
▁менеджер	-10.5974
▁пункт	-10.5974
▁ноутбук	-10.5974
▁вариант	-10.5974
▁комплекс	-10.5974
▁петух	-10.5975
▁рекорд	-10.5975
▁решить	-10.5985
▁уголовн	-10.6037
вернуть	-10.6042
вшую	-10.606
▁воскрес	-10.6073
▁холмс	-10.6073
▁пойдешь	-10.6073
▁просьба	-10.6073
▁расстраива	-10.6074
▁начнут	-10.6074
▁кличк	-10.6092
пускать	-10.6138
▁извращен	-10.6173
▁немедленно	-10.6173
▁познакомиться	-10.6173
▁распростран	-10.6173
▁ситуации	-10.6173
▁грипп	-10.6173
▁офицер	-10.6173
▁красивый	-10.6173
▁иностранн	-10.6173
▁пароль	-10.6174
▁завести	-10.6176
▁хвата	-10.618
▁космическ	-10.6193
платить	-10.6247
▁александр	-10.6274
▁бутерброд	-10.6274
▁многих	-10.6274
▁украину	-10.6274
▁батюшка	-10.6274
▁шашлык	-10.6274
▁стесня	-10.6274
▁испыта	-10.6274
▁ошибка	-10.6274
▁двоих	-10.6274
▁узнает	-10.6274
▁остановке	-10.6274
▁поклон	-10.6275
▁гулять	-10.6275
▁изменяет	-10.6275
▁висит	-10.6276
консерв	-10.6277
▁сделает	-10.6277
▁пройти	-10.6279
▁фонд	-10.6293
▁мелоч	-10.63
▁британски	-10.6376
▁воскресенье	-10.6376
▁прогноз	-10.6376
▁пузыр	-10.6376
▁остальных	-10.6376
▁белорус	-10.6376
▁яйцо	-10.6376
▁маньяк	-10.6377
▁второе	-10.6377
▁ждешь	-10.6378
▁ангел	-10.638
▁проезд	-10.6381
▁купюр	-10.639
▁расстрел	-10.6393
▁форме	-10.6405
▁оказалась	-10.6479
▁бассейн	-10.6479
▁барабан	-10.6479
▁хваста	-10.6479
▁ширин	-10.6479
▁газету	-10.6481
▁дереве	-10.6488
▁предпоч	-10.65
▁объявля	-10.6537
▁электронн	-10.6553
мешал	-10.6563
▁гибдд	-10.6583
▁коррупцией	-10.6583
▁проститутка	-10.6583
▁удовлетвор	-10.6583
▁революци	-10.6583
▁колобок	-10.6584
▁операцию	-10.6584
▁выбрасыва	-10.6584
▁ласково	-10.6584
▁большую	-10.6584
▁допинг	-10.6584
▁слушаю	-10.6584
▁сарочка	-10.6584
▁пушкин	-10.6586
▁разобра	-10.6586
здоров	-10.6596
▁уступ	-10.6627
▁находит	-10.6674
▁алкоголизм	-10.6689
▁осторожно	-10.6689
▁медсестра	-10.6689
▁опаздыва	-10.6689
▁комплимент	-10.6689
▁международн	-10.6689
▁отсюда	-10.6689
▁новостей	-10.6689
▁защища	-10.6689
▁чужой	-10.6689
▁кухни	-10.6689
▁утюг	-10.6689
▁позволяет	-10.6689
▁попыта	-10.669
▁подарки	-10.669
▁федор	-10.669
▁королев	-10.6691
▁умираю	-10.6693
▁строго	-10.6694
▁разреша	-10.6718
огнал	-10.6781
рывается	-10.6786
▁предложен	-10.6789
▁аппетит	-10.6795
▁отличаются	-10.6795
▁рекламн	-10.6795
▁трамвае	-10.6795
▁образования	-10.6795
▁арбуз	-10.6795
▁прокурор	-10.6795
▁выпустил	-10.6795
▁сказки	-10.6796
▁гостей	-10.6796
▁статус	-10.6797
▁заняться	-10.6797
▁произнес	-10.6799
▁чувствует	-10.6806
▁поменять	-10.6807
▁забыть	-10.6813
▁выбрать	-10.6852
▁оставля	-10.6874
▁губернатор	-10.6903
▁дмитрий	-10.6903
▁конституции	-10.6903
▁прекрасна	-10.6903
▁возмущен	-10.6903
▁нафиг	-10.6904
▁одежду	-10.7011
▁ржевский	-10.7011
▁сантиметр	-10.7011
▁секретарша	-10.7011
▁съезд	-10.7011
▁командировки	-10.7011
▁ветеринар	-10.7012
▁идеально	-10.7012
продавщица	-10.7012
▁третьего	-10.7012
▁сравни	-10.7012
▁спутник	-10.7016
▁изменить	-10.7016
ступить	-10.705
тянуть	-10.7068
▁автомобили	-10.7121
▁германии	-10.7121
▁использовать	-10.7121
▁квадрат	-10.7121
▁преподаватель	-10.7121
▁охранник	-10.7121
▁магнит	-10.7121
▁принцесс	-10.7121
▁сигнал	-10.7121
▁скажешь	-10.7121
▁проклят	-10.7121
▁ездил	-10.7122
▁задержан	-10.7122
ставлял	-10.7131
выполня	-10.714
морожен	-10.714
▁экономическ	-10.7166
▁рассматрива	-10.7178
▁потребовал	-10.7232
▁ребенком	-10.7232
▁хватило	-10.7232
▁электрик	-10.7232
▁историю	-10.7232
▁слушает	-10.7232
▁убедить	-10.7233
▁хреново	-10.7234
▁вдвое	-10.7235
▁зиму	-10.7238
▁вегетариан	-10.7345
▁попробовал	-10.7345
▁представител	-10.7345
▁придурок	-10.7345
▁милиции	-10.7345
▁серега	-10.7346
▁металл	-10.7352
▁назван	-10.7362
тащить	-10.7371
▁постоянн	-10.7373
ступать	-10.7409
▁безопасн	-10.7456
ворачивается	-10.7458
▁доказательств	-10.7458
▁ситуация	-10.7458
▁представляю	-10.7458
▁бесконечн	-10.7458
▁отношений	-10.7458
▁гостях	-10.7458
▁чувствуешь	-10.7458
▁искренн	-10.7459
▁разрешил	-10.7462
▁домашне	-10.7467
▁шнур	-10.7472
ставят	-10.7507
▁вежливо	-10.7573
▁болезни	-10.7573
▁отвечать	-10.7573
▁согласен	-10.7573
▁успокаива	-10.7573
▁маленькой	-10.7573
▁одессе	-10.7573
▁посадить	-10.7573
▁скотина	-10.7573
▁мороженое	-10.7573
▁представляете	-10.7573
▁фразы	-10.7574
▁апреля	-10.7574
▁зрения	-10.7574
▁шлюх	-10.7575
▁клоун	-10.7575
▁перчатк	-10.7576
▁чувак	-10.758
▁берлин	-10.759
▁заключен	-10.7618
▁избавиться	-10.769
▁ребенку	-10.769
▁режиссер	-10.769
▁рекоменду	-10.769
▁влюблен	-10.769
▁инженер	-10.769
▁привычке	-10.769
▁поддержива	-10.7691
▁произносит	-10.7693
▁мощн	-10.7715
второй	-10.7716
ставлю	-10.7718
▁торопи	-10.7732
▁скрыва	-10.7769
▁большинств	-10.7796
▁задумчиво	-10.7807
▁покупатель	-10.7807
▁гороскоп	-10.7807
▁диагноз	-10.7807
▁швейцар	-10.7807
▁внучек	-10.7807
▁госдумы	-10.7807
▁доказать	-10.7807
▁звучит	-10.7807
▁червя	-10.7807
▁любовница	-10.7807
▁трамвай	-10.7807
▁показывать	-10.7807
▁хомяч	-10.7807
▁перепутал	-10.7808
▁колхоз	-10.7808
▁останется	-10.7808
▁предсказ	-10.7821
▁базар	-10.7822
▁французск	-10.7872
▁интервью	-10.7926
▁литератур	-10.7926
▁немножко	-10.7926
▁продолжает	-10.7926
▁разочарова	-10.7926
▁руководств	-10.7926
▁условия	-10.7926
▁андрей	-10.7926
▁корабль	-10.7926
▁вакцин	-10.7926
▁джинсы	-10.7926
▁щас	-10.7926
▁бороться	-10.7927
служить	-10.7927
▁уникальн	-10.7929
стекл	-10.7931
сыпать	-10.8004
▁двадцат	-10.803
▁бриллиант	-10.8047
▁девственниц	-10.8047
▁евреев	-10.8047
▁рекламу	-10.8047
▁солнышко	-10.8047
▁хозяйка	-10.8047
▁гитлер	-10.8047
▁резюме	-10.8047
▁случая	-10.8047
▁логика	-10.8047
сквозь	-10.8047
▁приятеля	-10.8047
▁контакт	-10.8047
▁наряд	-10.805
▁океан	-10.8051
вторых	-10.8074
▁моисеев	-10.8121
числен	-10.8148
▁америку	-10.8169
▁англичан	-10.8169
▁свободны	-10.8169
▁университет	-10.8169
▁окончани	-10.8169
▁полицейский	-10.8169
▁уборщиц	-10.8169
▁фабрик	-10.8169
▁универ	-10.817
▁предпочитаю	-10.817
рошен	-10.8173
▁синяк	-10.8177
▁вступ	-10.818
▁выгодн	-10.8182
технологи	-10.8184
глядывает	-10.8218
▁инопланетян	-10.8292
▁незаметно	-10.8292
▁одежды	-10.8292
▁сэконом	-10.8292
▁тюрьме	-10.8292
▁деревья	-10.8292
▁красивых	-10.8292
▁пидрас	-10.8292
▁банкомат	-10.8292
▁иисус	-10.8293
▁сказку	-10.8293
▁патрон	-10.8295
▁суровы	-10.8295
▁гениальн	-10.8304
▁капитал	-10.831
▁изнасилован	-10.8417
▁наверняка	-10.8417
▁навсегда	-10.8417
▁навального	-10.8417
▁яндекс	-10.8417
▁кавказ	-10.8417
▁умоляю	-10.8417
▁дежур	-10.8418
▁месячн	-10.8434
▁спящ	-10.8467
▁снимаю	-10.8482
▁познакомился	-10.8544
▁посоветовал	-10.8544
▁украинско	-10.8544
▁холостяк	-10.8544
▁шепчет	-10.8544
▁олимпийск	-10.8544
▁исполня	-10.8544
▁проверить	-10.8544
▁наверно	-10.8544
▁термин	-10.8547
▁наклон	-10.8549
▁совершен	-10.8605
думайте	-10.8632
▁чемпион	-10.8661
▁замечает	-10.8672
▁миллиардов	-10.8672
▁маленького	-10.8672
▁функци	-10.8672
▁соверша	-10.8672
▁знаменит	-10.8672
практик	-10.8672
▁система	-10.8672
▁выбирает	-10.8672
▁хомяк	-10.8673
▁ухажива	-10.8677
▁удовольстви	-10.8756
▁гугл	-10.8764
зависимости	-10.8802
▁недостаток	-10.8802
▁неудобно	-10.8802
▁регулярно	-10.8802
▁итальян	-10.8802
▁седьм	-10.8802
▁переживай	-10.8802
▁байден	-10.8802
▁армия	-10.8802
▁фонар	-10.8804
▁лавочк	-10.8806
▁новогодне	-10.8806
министр	-10.8923
▁бесполезн	-10.8933
▁оппозици	-10.8933
▁освободи	-10.8933
▁перфоратор	-10.8933
▁попугай	-10.8933
▁свадебн	-10.8933
▁установлен	-10.8933
▁бумага	-10.8933
▁сплош	-10.8934
▁слыхал	-10.8934
▁выгнал	-10.8936
▁сомнева	-10.8936
▁автоматически	-10.8938
▁останавлива	-10.8939
▁признать	-10.896
ставлять	-10.9058
▁инстаграм	-10.9067
▁проститутки	-10.9067
▁приготовил	-10.9067
▁ружье	-10.9067
▁привычка	-10.9067
▁мудры	-10.9067
▁вырасту	-10.9067
▁гляди	-10.9068
▁корзин	-10.9072
▁печаль	-10.9076
▁заглядыва	-10.9091
▁догадался	-10.9202
▁песочниц	-10.9202
▁склероз	-10.9202
▁территории	-10.9202
▁церкви	-10.9202
▁любовнице	-10.9202
▁пораньше	-10.9202
▁гестапо	-10.9202
▁европейск	-10.9202
▁пешком	-10.9202
штирлиц	-10.9246
▁следующи	-10.9308
ключения	-10.9319
▁заявляет	-10.9339
▁стюардесс	-10.9339
▁шахматы	-10.9339
▁календар	-10.9339
▁свидетель	-10.9339
▁определя	-10.9339
▁борьба	-10.9339
▁инвалид	-10.9339
▁недорого	-10.9339
▁одинаково	-10.9339
▁сортир	-10.9341
▁натурал	-10.9341
▁бешен	-10.9341
▁использован	-10.9478
▁лозунг	-10.9478
▁эксперимент	-10.9478
▁возбужд	-10.9478
▁переполнен	-10.9478
▁пианино	-10.9478
▁понадоби	-10.9478
▁заблуди	-10.9478
▁борьбе	-10.9478
▁умирает	-10.9478
▁аптека	-10.9478
▁широк	-10.9479
▁фронт	-10.9479
▁заднице	-10.948
несут	-10.9562
▁совпад	-10.9612
▁выглядишь	-10.9619
▁колготки	-10.9619
▁кошмар	-10.9619
▁лучшим	-10.9619
▁карандаш	-10.9619
▁пингвин	-10.9619
▁узнаешь	-10.9619
скакивает	-10.9619
▁размнож	-10.9619
▁достойн	-10.9622
кладывать	-10.9704
▁бессмысленн	-10.9761
▁бутылок	-10.9761
▁градусов	-10.9761
▁объясняет	-10.9761
▁оливье	-10.9761
▁патологоанатом	-10.9761
▁почувствовал	-10.9761
▁следующей	-10.9761
▁свидании	-10.9761
▁глубин	-10.9761
▁макияж	-10.9761
▁изображен	-10.9761
▁улыбну	-10.9762
▁захочет	-10.9762
▁смертн	-10.9762
▁объект	-10.9762
▁водочк	-10.9856
▁грязь	-10.9906
▁побольше	-10.9906
▁тюрьмы	-10.9906
▁улыбается	-10.9906
▁ограблен	-10.9906
▁проктолог	-10.9906
▁руководител	-10.9906
▁волнуйся	-10.9906
▁людоед	-10.9906
▁расскажу	-10.9906
▁участник	-10.9906
▁надежда	-10.9906
▁участие	-10.9907
▁устройств	-10.9907
▁довольны	-10.9908
▁коммунист	-10.9908
▁закусыва	-10.9909
следователь	-10.9923
▁горизонт	-11.0053
▁биатлон	-11.0053
▁вконтакте	-11.0053
▁конституцию	-11.0053
▁кроссворд	-11.0053
▁появилось	-11.0053
▁украинцы	-11.0053
▁хоккей	-11.0053
▁задолбал	-11.0053
▁памяти	-11.0053
▁приближа	-11.0053
▁пиджак	-11.0053
▁систему	-11.0053
▁терпеть	-11.0053
▁убийц	-11.0054
▁эксперт	-11.0054
▁удивил	-11.006
▁блондинку	-11.0203
▁возьмем	-11.0203
▁последнего	-11.0203
▁электричество	-11.0203
▁ботинки	-11.0203
▁табурет	-11.0203
▁угрожа	-11.0203
▁угроз	-11.0203
▁солнечн	-11.0203
▁социальны	-11.0203
▁православн	-11.0204
▁отобрал	-11.0204
▁молоденьк	-11.0249
сматривает	-11.0276
▁справедлив	-11.029
